memory_initialization_radix=16;
memory_initialization_vector=
01,
07,
FD,
FF,
05,
F7,
FE,
FD,
FF,
00,
01,
FF,
03,
F3,
FB,
03,
02,
F8,
02,
FD,
01,
FF,
01,
FA,
09,
02,
05,
06,
FD,
FC,
05,
0A,
FC,
F8,
00,
F3,
FF,
0A,
04,
F5,
0D,
00,
F3,
F6,
FE,
F1,
07,
04,
F9,
F3,
FB,
F7,
03,
FC,
FC,
03,
FD,
0A,
FD,
03,
FB,
FF,
FA,
02,
05,
F8,
07,
12,
06,
FD,
FD,
F5,
FB,
0B,
09,
F1,
07,
F7,
F4,
FB,
FB,
FE,
FE,
00,
FE,
F9,
FF,
06,
03,
F8,
FD,
F2,
02,
0A,
02,
FF,
09,
0B,
03,
0A,
00,
FA,
03,
0A,
0D,
FA,
0A,
F0,
F7,
FE,
FF,
FF,
06,
FC,
F8,
F7,
06,
01,
01,
FF,
FB,
F4,
FE,
06,
00,
03,
0B,
01,
03,
0C,
F5,
04,
09,
07,
04,
FF,
F9,
F5,
FA,
04,
FD,
FC,
00,
FE,
FF,
01,
FE,
F9,
04,
07,
00,
FC,
04,
03,
F9,
FC,
FF,
FD,
FF,
FD,
FE,
FD,
F9,
FB,
00,
FF,
FA,
09,
FB,
03,
0B,
08,
FE,
05,
01,
FD,
0A,
0D,
FC,
09,
02,
02,
F7,
F6,
F8,
FC,
01,
0B,
FD,
01,
00,
03,
0A,
03,
07,
0A,
FB,
04,
0D,
FE,
09,
0F,
FC,
04,
07,
FE,
02,
FE,
FD,
FA,
05,
FD,
FE,
FD,
FF,
05,
0E,
F8,
FD,
06,
00,
FB,
05,
F4,
F9,
02,
FB,
F4,
02,
E9,
F1,
F9,
04,
FF,
F4,
EF,
F7,
F2,
09,
02,
FD,
05,
FB,
F2,
FE,
FD,
FF,
FF,
F6,
F3,
02,
04,
F7,
FC,
F1,
EC,
0C,
0B,
F1,
02,
F2,
F4,
0B,
0A,
F8,
04,
00,
FC,
08,
05,
F7,
05,
02,
FF,
00,
04,
F2,
05,
05,
F8,
FC,
01,
F7,
05,
0D,
01,
00,
06,
FE,
FF,
0C,
08,
07,
02,
07,
02,
09,
FB,
09,
FA,
00,
03,
FF,
F9,
04,
FC,
05,
FF,
F6,
FA,
06,
03,
00,
02,
FA,
F9,
09,
F9,
FB,
FC,
EE,
F3,
0B,
FE,
F5,
FE,
F8,
F5,
0A,
05,
02,
03,
F3,
F5,
08,
FB,
02,
01,
00,
FF,
05,
03,
FD,
09,
F4,
F4,
F8,
03,
0A,
0B,
F4,
03,
F0,
0E,
05,
0B,
FC,
FA,
F9,
0E,
F6,
FE,
07,
FF,
F9,
0C,
F9,
02,
01,
06,
F1,
06,
04,
FE,
05,
FF,
EB,
03,
09,
FE,
FF,
06,
F2,
FE,
0B,
03,
FC,
F6,
F7,
F2,
FF,
FB,
0D,
07,
F7,
09,
02,
02,
06,
0B,
F3,
02,
FD,
FB,
07,
01,
05,
FE,
FA,
F8,
03,
F8,
07,
FE,
00,
F6,
F5,
00,
FD,
0A,
05,
F9,
03,
00,
FD,
FA,
04,
01,
FC,
FF,
04,
F0,
03,
06,
FC,
F3,
01,
F9,
00,
05,
04,
FA,
00,
02,
01,
FC,
09,
00,
07,
01,
FE,
F3,
01,
06,
06,
F6,
00,
F1,
FA,
F7,
06,
EA,
05,
FC,
F9,
FC,
F9,
FF,
05,
FE,
09,
02,
F8,
04,
FE,
FD,
03,
08,
FD,
02,
F7,
ED,
FF,
EF,
08,
F6,
F3,
F9,
FA,
F9,
04,
FD,
01,
F7,
08,
02,
F3,
0C,
01,
FA,
09,
0A,
FA,
07,
FD,
FD,
02,
05,
01,
FF,
FA,
F7,
FB,
FB,
07,
FD,
F5,
00,
04,
08,
F2,
0A,
FA,
FB,
0A,
0D,
F1,
0D,
04,
F5,
FD,
08,
FA,
F8,
FF,
FB,
F9,
F8,
FB,
F6,
F2,
FC,
08,
04,
05,
05,
F6,
FD,
0B,
0A,
FD,
05,
F9,
FE,
04,
04,
F6,
F7,
FE,
FB,
F7,
FA,
02,
04,
FD,
FE,
04,
01,
04,
05,
FA,
FC,
03,
02,
02,
09,
02,
06,
02,
05,
FC,
02,
FD,
00,
FA,
F3,
FF,
FA,
02,
01,
01,
F4,
02,
02,
F8,
00,
02,
F5,
05,
FB,
04,
FF,
03,
FD,
05,
03,
04,
FC,
03,
FE,
08,
FE,
FB,
F9,
00,
FC,
06,
FD,
05,
FE,
F4,
FB,
07,
FF,
F9,
FC,
05,
05,
FD,
02,
FE,
08,
08,
FF,
FE,
07,
F6,
FF,
03,
FB,
0A,
FA,
F4,
F3,
EF,
01,
FF,
FA,
FA,
06,
06,
0B,
FB,
05,
02,
00,
0A,
04,
01,
F8,
03,
08,
0D,
08,
04,
02,
F9,
FE,
05,
FA,
05,
F5,
F7,
F6,
E9,
FD,
09,
FF,
04,
07,
08,
04,
FF,
02,
FF,
FF,
09,
01,
FA,
F3,
06,
FB,
0E,
0A,
FF,
F6,
F8,
F1,
F9,
F1,
02,
EF,
F6,
F2,
F3,
02,
0D,
FB,
03,
08,
FE,
0B,
FA,
F9,
04,
05,
09,
02,
F7,
F1,
FC,
FB,
00,
F7,
02,
00,
F5,
F5,
F3,
F3,
00,
04,
F7,
02,
01,
05,
0F,
02,
03,
03,
FE,
04,
F8,
FF,
05,
06,
08,
FE,
F7,
F1,
F7,
FC,
F5,
FC,
FD,
F9,
02,
02,
FE,
02,
FF,
F9,
FE,
01,
0D,
04,
FA,
F8,
F8,
FB,
08,
FD,
00,
04,
FA,
FA,
02,
03,
FF,
0B,
FB,
F9,
FD,
F9,
FF,
04,
FF,
FF,
00,
FF,
F5,
FD,
FF,
02,
07,
05,
F3,
00,
02,
FA,
01,
FD,
FF,
FC,
F8,
FA,
07,
02,
01,
FF,
FD,
FE,
07,
04,
F6,
0A,
FC,
FE,
05,
02,
E5,
04,
FB,
02,
06,
FD,
F3,
FA,
F9,
FE,
01,
00,
FF,
04,
F5,
01,
08,
04,
F8,
04,
FF,
F8,
04,
03,
F7,
01,
FC,
FE,
FD,
01,
EA,
02,
02,
04,
FF,
FF,
FD,
03,
06,
05,
09,
F8,
F4,
09,
FB,
FC,
06,
09,
F6,
0C,
01,
03,
F8,
01,
FC,
03,
09,
05,
FF,
00,
F2,
FF,
04,
03,
08,
FE,
EA,
FB,
05,
04,
06,
F5,
E5,
0B,
07,
FA,
02,
FE,
F8,
04,
FC,
FC,
01,
07,
04,
06,
FD,
FB,
04,
04,
03,
F7,
FA,
FF,
FE,
FB,
FA,
F8,
F2,
02,
07,
03,
06,
00,
F7,
FF,
FA,
03,
01,
04,
09,
0A,
F4,
FE,
FD,
00,
08,
0A,
FC,
03,
FC,
FE,
07,
03,
04,
FD,
FE,
02,
FC,
FE,
05,
FD,
F2,
08,
FF,
FD,
07,
04,
FF,
05,
07,
07,
F7,
FE,
FC,
F8,
0F,
FE,
01,
02,
F6,
F6,
10,
05,
03,
FE,
F0,
ED,
0E,
07,
08,
FE,
F2,
F5,
06,
F8,
04,
00,
FB,
EF,
04,
FB,
F4,
FA,
08,
F7,
01,
02,
FC,
F9,
05,
F8,
08,
FD,
FA,
02,
04,
FB,
02,
F6,
02,
F6,
07,
05,
FE,
EA,
FA,
E8,
08,
04,
F7,
08,
00,
02,
08,
03,
FD,
FD,
07,
FD,
0A,
FF,
F8,
FE,
01,
FA,
0B,
05,
FE,
FC,
FA,
F8,
FF,
08,
F4,
06,
F5,
F9,
05,
FF,
02,
06,
F4,
00,
01,
04,
00,
09,
FD,
01,
F7,
06,
06,
08,
FC,
F8,
04,
02,
02,
08,
FF,
F6,
02,
FC,
FE,
FE,
06,
02,
FE,
08,
F5,
FF,
04,
07,
04,
09,
FE,
02,
FA,
FB,
01,
FE,
00,
FE,
F9,
FA,
FE,
02,
FB,
04,
08,
03,
FE,
FD,
05,
FD,
0B,
02,
F8,
FF,
04,
04,
FD,
07,
FD,
FF,
01,
00,
08,
06,
FA,
03,
02,
F9,
01,
FC,
F9,
FF,
FF,
03,
FE,
05,
FB,
F9,
FA,
01,
07,
01,
F4,
F6,
09,
F8,
02,
F9,
FF,
F5,
08,
F9,
02,
FA,
FC,
F7,
FD,
F4,
03,
FD,
FF,
F0,
06,
01,
F4,
FD,
FE,
F5,
FB,
08,
FE,
F8,
F8,
FD,
02,
F5,
FF,
FA,
06,
F9,
04,
00,
FF,
FE,
08,
FF,
FB,
FF,
00,
FC,
FD,
02,
F9,
FA,
FE,
FD,
06,
06,
06,
09,
F8,
09,
F9,
01,
FB,
F1,
F5,
FF,
04,
05,
02,
FA,
F2,
FF,
07,
F7,
06,
F7,
F0,
0A,
06,
F0,
09,
06,
F8,
09,
FD,
ED,
07,
FE,
FB,
0C,
F7,
F3,
FC,
F8,
F4,
FC,
04,
06,
F0,
FD,
F3,
F8,
03,
0A,
F9,
F7,
F3,
F4,
02,
0C,
00,
EC,
F7,
F7,
02,
08,
00,
F8,
F3,
F5,
01,
FB,
FD,
01,
FD,
FF,
03,
04,
FE,
0B,
FE,
F7,
F9,
04,
0B,
0A,
F9,
EE,
03,
05,
03,
11,
FF,
F2,
0D,
04,
00,
06,
06,
FC,
0F,
04,
07,
01,
09,
05,
FC,
FB,
03,
04,
02,
07,
FB,
03,
02,
05,
FD,
FD,
F9,
05,
09,
05,
05,
F9,
F4,
04,
07,
07,
01,
FE,
06,
07,
07,
FA,
00,
01,
FB,
FD,
03,
00,
FE,
05,
FF,
FB,
07,
02,
FD,
07,
FA,
F7,
07,
02,
FF,
02,
FE,
FC,
08,
02,
03,
FC,
FF,
F3,
FA,
04,
00,
FE,
FF,
FD,
F9,
00,
FF,
01,
03,
FF,
FA,
01,
F8,
09,
00,
03,
FF,
00,
F5,
08,
04,
F3,
FA,
FA,
FD,
02,
04,
F7,
FE,
01,
03,
03,
05,
FB,
FE,
FE,
0A,
05,
01,
00,
F9,
F8,
FA,
00,
FE,
08,
FC,
FE,
F9,
FE,
04,
09,
FB,
02,
00,
FE,
F7,
0B,
09,
0D,
F6,
00,
02,
FB,
09,
10,
FD,
F6,
FC,
FA,
0A,
0E,
FE,
FA,
EF,
08,
05,
04,
00,
09,
E9,
09,
09,
06,
07,
04,
F3,
04,
07,
04,
01,
FC,
03,
FA,
0E,
08,
00,
F7,
FB,
F3,
0E,
FF,
01,
FF,
F3,
FA,
06,
F6,
04,
07,
FA,
EB,
FE,
F5,
FD,
F5,
FD,
F0,
F9,
FF,
FF,
FE,
0B,
F5,
FD,
FC,
FD,
F4,
03,
F7,
FC,
F7,
FB,
F7,
04,
FE,
F5,
FE,
FE,
FB,
08,
09,
F8,
FB,
F0,
FF,
06,
00,
00,
03,
08,
07,
05,
F9,
F9,
04,
08,
02,
FE,
FD,
04,
05,
02,
FA,
04,
FE,
05,
07,
F9,
FB,
FF,
F0,
07,
0C,
08,
FF,
F6,
F7,
01,
00,
06,
05,
F9,
F5,
03,
05,
0A,
00,
FB,
F6,
FC,
F4,
07,
F7,
04,
EB,
FB,
FA,
FB,
FB,
FF,
EE,
07,
FB,
FE,
FD,
F7,
F6,
FF,
FC,
00,
07,
FA,
F5,
05,
06,
08,
FF,
FD,
E6,
F9,
04,
FE,
F0,
06,
FD,
F6,
FA,
01,
FF,
09,
02,
FB,
F8,
FC,
02,
FF,
02,
04,
01,
FE,
0A,
F5,
F8,
FF,
07,
FF,
0C,
FB,
EC,
03,
FD,
F3,
F7,
05,
02,
02,
02,
FE,
FC,
01,
02,
02,
FD,
03,
03,
FE,
02,
FB,
00,
FC,
0E,
FE,
01,
FB,
09,
03,
03,
F3,
00,
01,
FE,
01,
02,
FC,
08,
FA,
05,
00,
FF,
FA,
07,
FA,
06,
FF,
00,
01,
06,
01,
00,
FD,
FD,
FC,
F9,
FE,
F9,
F0,
F7,
03,
F4,
FC,
FC,
F5,
FE,
F9,
09,
FB,
03,
08,
07,
F6,
03,
01,
00,
09,
01,
F9,
FD,
F9,
01,
EA,
F2,
FE,
02,
F4,
06,
00,
03,
F9,
07,
00,
FF,
12,
08,
ED,
0B,
00,
FA,
00,
FF,
F1,
FE,
06,
FF,
04,
F9,
FE,
00,
F9,
02,
02,
0D,
F9,
03,
FF,
FC,
0B,
03,
F9,
07,
FE,
FB,
0B,
FE,
F9,
F3,
04,
FB,
05,
F7,
FC,
03,
00,
FF,
04,
FB,
FF,
08,
00,
FE,
0A,
08,
00,
F9,
06,
00,
03,
FD,
F6,
F4,
06,
08,
FE,
F8,
01,
02,
09,
FE,
FE,
F4,
06,
FD,
04,
02,
03,
FC,
01,
FC,
05,
0D,
F8,
F4,
03,
00,
FD,
0A,
FB,
F5,
08,
FB,
00,
09,
05,
F7,
0A,
FB,
04,
03,
01,
F9,
03,
FB,
FE,
FF,
F9,
FE,
03,
00,
FD,
02,
03,
02,
01,
00,
06,
08,
FF,
F8,
00,
00,
0A,
0A,
FC,
F6,
FA,
01,
06,
0A,
FE,
FA,
FB,
07,
02,
05,
03,
F7,
FE,
0D,
03,
FC,
00,
01,
00,
FF,
05,
05,
FB,
FF,
F5,
FD,
09,
07,
F8,
FE,
F5,
01,
0A,
0D,
F7,
FA,
ED,
FB,
06,
0A,
FE,
F6,
FE,
00,
F7,
FC,
0B,
FE,
06,
05,
06,
FB,
FC,
06,
FA,
03,
04,
F8,
F5,
00,
03,
FA,
09,
FC,
F3,
FE,
FB,
F5,
0A,
04,
02,
FC,
FC,
F6,
01,
FA,
FF,
FF,
06,
09,
F8,
F8,
FF,
05,
FE,
03,
F3,
F5,
EF,
FE,
06,
02,
F8,
F5,
FB,
02,
02,
05,
01,
FB,
03,
05,
FC,
07,
FE,
FA,
03,
FE,
02,
01,
FD,
03,
00,
01,
FC,
00,
FF,
FE,
03,
01,
FE,
06,
02,
FA,
0A,
03,
06,
01,
07,
F9,
06,
05,
FA,
04,
FD,
03,
01,
FB,
03,
FF,
FC,
FD,
0A,
FF,
05,
03,
F8,
00,
FF,
FF,
FF,
05,
FA,
FF,
01,
FF,
FB,
08,
FE,
00,
F9,
FF,
01,
03,
FC,
03,
00,
FC,
03,
00,
FA,
FA,
0D,
02,
FC,
03,
F9,
FF,
07,
00,
FA,
00,
00,
01,
03,
F8,
FA,
00,
00,
03,
03,
F9,
05,
03,
02,
FB,
F6,
F9,
00,
F8,
04,
0D,
FA,
F6,
FB,
FE,
00,
0B,
0C,
FE,
05,
FB,
FF,
01,
0B,
01,
FF,
05,
FD,
FD,
02,
F9,
FE,
FE,
05,
F6,
FD,
05,
04,
F4,
0F,
03,
EF,
00,
FC,
F0,
0F,
14,
F5,
F1,
FC,
F1,
08,
0E,
00,
F7,
F9,
08,
01,
01,
FE,
02,
FD,
0E,
FB,
F5,
00,
FF,
06,
05,
F7,
F1,
FB,
02,
0C,
0B,
07,
F7,
F3,
F8,
06,
F8,
09,
09,
FD,
F1,
FB,
F4,
04,
03,
01,
F6,
05,
FA,
00,
FE,
FB,
04,
02,
FA,
FA,
FC,
ED,
F0,
FF,
F9,
00,
03,
FE,
02,
07,
FE,
FD,
05,
0A,
03,
08,
FC,
FB,
FE,
04,
FC,
05,
01,
05,
08,
E9,
FB,
FA,
03,
04,
FF,
EB,
FC,
FF,
FE,
01,
02,
05,
03,
05,
05,
04,
09,
09,
00,
0A,
FB,
03,
04,
FE,
02,
00,
F9,
0B,
04,
DF,
FC,
FF,
01,
02,
FC,
FB,
FF,
FD,
FE,
09,
00,
09,
04,
F2,
F9,
08,
02,
07,
04,
FB,
F2,
FF,
FE,
FF,
F9,
04,
F0,
0A,
01,
FE,
01,
00,
03,
0C,
F7,
09,
02,
F5,
FF,
09,
F6,
0C,
07,
F2,
FB,
06,
F5,
06,
FD,
FA,
DF,
F9,
F9,
F6,
F7,
06,
F3,
FE,
F2,
04,
FE,
FD,
EF,
01,
ED,
05,
04,
F9,
F6,
06,
ED,
FF,
0B,
F9,
F9,
FA,
F5,
F4,
F5,
FE,
F8,
F4,
F9,
F6,
02,
FC,
FD,
F9,
F9,
F2,
FE,
F9,
FC,
FA,
FF,
05,
0A,
F7,
00,
FE,
05,
07,
00,
F6,
FD,
06,
00,
FC,
FB,
F8,
02,
01,
08,
01,
F9,
F7,
07,
00,
FC,
F5,
02,
07,
FF,
08,
03,
09,
0A,
F9,
FE,
01,
02,
09,
03,
F2,
EF,
02,
FD,
FA,
F8,
F8,
F4,
0D,
05,
FB,
FC,
F8,
0C,
F5,
F6,
06,
08,
FE,
05,
04,
01,
02,
07,
F9,
F0,
FA,
FB,
07,
F6,
02,
F1,
00,
FE,
F8,
EF,
01,
FC,
02,
03,
FD,
FA,
03,
FF,
F8,
FE,
FE,
08,
F6,
FB,
FE,
07,
FF,
0C,
F0,
F2,
03,
05,
05,
FE,
05,
F2,
00,
04,
FC,
F6,
03,
06,
03,
05,
F8,
FA,
09,
02,
01,
07,
01,
05,
FA,
F7,
05,
05,
01,
06,
F3,
F3,
07,
04,
02,
F9,
00,
FC,
FE,
FF,
00,
F3,
05,
04,
FD,
00,
FB,
F3,
03,
FA;
