FC
01
01
04
07
06
00
FD
05
02
FE
05
FE
02
02
02
FA
02
03
01
00
01
03
03
FC
01
FC
02
FB
FF
FE
04
FE
FF
04
02
03
00
01
FC
02
FC
01
01
08
03
FD
FB
FF
FE
01
02
02
FD
03
02
01
FB
FE
FC
FF
05
FF
00
00
00
00
02
FC
FD
02
FE
FE
FB
03
02
00
02
01
01
FB
01
01
FF
FF
02
02
00
03
05
FA
FD
00
FC
02
FE
FD
FD
02
00
05
01
01
03
01
05
00
FE
03
00
FF
01
FA
FE
00
04
FD
04
01
FC
