memory_initialization_radix=16;
memory_initialization_vector=
ED,
F9,
F4,
02,
FE,
F8,
F1,
F1,
F6,
EE,
F9,
F9,
F3,
01,
08,
FF,
F0,
02,
FB,
07,
00,
FB,
08,
FC,
00,
FC,
F1,
03,
F2,
03,
EF,
F7,
FA,
F1,
00,
F5,
08,
03,
01,
FD,
05,
FE,
ED,
08,
01,
02,
EF,
F2,
F6,
FA,
ED,
02,
00,
00,
01,
FB,
07,
09,
FE,
07,
07,
04,
01,
EF,
07,
00,
02,
07,
FE,
F8,
FB,
02,
07,
03,
FC,
F9,
0A,
F5,
FD,
03,
06,
10,
08,
03,
FD,
F6,
08,
FC,
0A,
ED,
09,
04,
EE,
FD,
03,
09,
04,
F1,
EA,
03,
05,
05,
F9,
06,
05,
0C,
FA,
F3,
F6,
F9,
FC,
04,
FA,
FC,
08,
FE,
06,
FA,
06,
FC,
F8,
FA,
05,
02,
04,
FC,
FF,
EE,
0A,
F6,
05,
08,
F4,
03,
01,
04,
01,
EF,
01,
F9,
03,
ED,
0E,
F9,
07,
EF,
EC,
05,
FB,
03,
EF,
FA,
FA,
FA,
05,
FB,
FC,
FA,
02,
07,
FE,
01,
07,
F8,
08,
09,
F8,
F7,
08,
02,
EF,
FD,
09,
09,
07,
F3,
08,
F2,
01,
08,
FA,
F3,
F7,
FC,
FB,
FF,
FE,
05,
F6,
FC,
FF,
FA,
03,
00,
07,
04,
05,
04,
F7,
F4,
0A,
03,
FB,
FD,
00,
07,
F1,
FA,
06,
F4,
FC,
04,
F3,
FF,
F1,
07,
FD,
07,
02,
06,
F9,
F8,
01,
02,
FB,
07,
F6,
F2,
F6,
F2,
F9,
01,
F7,
FE,
F4,
0A,
0C,
01,
F5,
0D,
05,
F5,
06,
F3,
F9,
03,
09,
01,
02,
FD,
F3,
0C,
0D,
0B,
FB,
07,
EB,
FE,
01,
04,
F6,
03,
F2,
00,
FA,
08,
FE,
FA,
0B,
05,
FA,
F7,
F3,
FF,
05,
F5,
04,
F8,
F9,
09,
01,
FF,
F2,
03,
00,
00,
03,
06,
F3,
07,
F5,
02,
FD,
07,
03,
01,
FE,
0B,
08,
EF,
F9,
01,
F6,
ED,
01,
03,
F1,
09,
FB,
F9,
01,
FA,
03,
FF,
F9,
FF,
F2,
FB,
06,
FD,
05,
01,
F2,
F2,
05,
F7,
FB,
F7,
F6,
FA,
01,
08,
F2,
F1,
04,
F1,
0A,
01,
02,
ED,
FA,
02,
F4,
F2,
01,
08,
05,
F5,
01,
F3,
F9,
FE,
02,
05,
FE,
02,
FF,
EE,
FB,
FB,
02,
02,
0A,
F7,
ED,
00,
0A,
08,
F7,
00,
08,
F3,
FF,
F6,
FA,
FB,
F8,
F5,
0A,
FC,
02,
05,
F7,
FC,
0B,
00,
FB,
0D,
06,
F3,
05,
07,
07,
FB,
FE,
F6,
F4,
0C,
02,
00,
EE,
F6,
06,
FD,
07,
FE,
08,
09,
F5,
FD,
FB,
FD,
FE,
05,
FC,
FB,
0A,
EE,
07,
0D,
F4,
05,
0A,
FD,
FB,
FC,
05,
FD,
F2,
01,
F9,
05,
F3,
02,
FF,
04,
F8,
EB,
FA,
F3,
0A,
03,
05,
0E,
F9,
F3,
06,
F4,
03,
02,
FD,
04,
08,
04,
06,
05,
F8,
F7,
F8,
F9,
05,
00,
FE,
F4,
02,
0A,
01,
FA,
00,
EC,
FC,
FB,
02,
0B,
04,
00,
F0,
07,
02,
0B,
F8,
F7,
09,
03,
F2,
FF,
03,
08,
F3,
00,
F7,
FF,
FE,
02,
FF,
FE,
00,
01,
F1,
FA,
F9,
F7,
08,
02,
00,
EE,
01,
F3,
04,
FE,
06,
FE,
F5,
F0,
01,
FD,
FD,
FD,
05,
FC,
F4,
03,
FF,
FD,
F6,
06,
04,
F8,
01,
F1,
F9,
FB,
0D,
F9,
01,
F9,
04,
F8,
00,
FD,
FA,
F5,
F7,
05,
03,
EC,
FF,
0B,
FA,
FA,
FD,
09,
06,
01,
09,
05,
06,
04,
00,
FE,
FE,
03,
F0,
0A,
0C,
08,
FB,
F0,
00,
07,
04,
F5,
04,
05,
FD,
09,
F1,
0D,
FC,
F9,
FB,
F2,
FB,
07,
FE,
F3,
08,
F7,
0A,
02,
FB,
05,
03,
FB,
06,
00,
FE,
07,
F7,
F9,
0B,
F5,
F2,
00,
04,
08,
F9,
FD,
05,
02,
02,
FB,
FB,
08,
04,
04,
F9,
FD,
F9,
FE,
EF,
06,
F3,
F7,
FF,
F7,
00,
00,
07,
02,
06,
F0,
F9,
FC,
F7,
E8,
F2,
07,
FA,
F5,
F7,
F6,
07,
F9,
F1,
04,
02,
0A,
F3,
08,
03,
09,
0F,
F6,
F8,
F6,
0A,
03,
FA,
F4,
01,
F6,
06,
0E,
FE,
06,
09,
F7,
FA,
F4,
F7,
F7,
FF,
F7,
07,
FD,
FF,
09,
FA,
01,
FB,
F5,
0A,
FC,
F2,
08,
01,
0A,
05,
05,
FC,
05,
03,
F7,
07,
0E,
F6,
0F,
F2,
02,
0B,
02,
FB,
07,
FC,
09,
FC,
0A,
0A,
FE,
05,
F9,
05,
F3,
F6,
F6,
01,
F8,
06,
FB,
00,
02,
FC,
F5,
FB,
0A,
F6,
F3,
09,
F2,
F0,
02,
F0,
FE,
F5,
F9,
F3,
09,
02,
FD,
F6,
F7,
05,
06,
FD,
03,
FB,
F9,
F1,
0A,
F9,
09,
FF,
F8,
02,
EE,
F8,
09,
05,
06,
01,
FB,
F2,
FF,
08,
03,
FA,
EC,
FF,
FE,
08,
F4,
FD,
FF,
FA,
F4,
00,
01,
F3,
EF,
F2,
F3,
01,
07,
F8,
FB,
03,
05,
F2,
FE,
07,
09,
01,
02,
09,
FC,
F0,
02,
0A,
09,
FA,
F6,
FD,
F2,
01,
FE,
00,
F3,
01,
05,
03,
07,
0A,
0A,
01,
F8,
05,
FD,
F9,
0B,
F0,
F0,
02,
FD,
03,
FE,
0A,
F6,
F6,
06,
04,
F7,
03,
00,
F9,
F5,
F4,
FF,
F9,
FC;
