01
FE
03
02
09
05
FF
F3
F9
FC
FB
07
FB
F4
FE
FD
09
03
F7
F8
FB
0B
09
FA
FF
07
FD
F3
FD
02
0A
0A
F6
F3
03
FF
12
0B
FB
F9
F2
0B
0A
FE
F7
F4
01
07
04
01
FD
FF
FB
01
05
FC
04
FE
FB
FD
FA
06
09
FB
FF
02
03
0D
FF
06
FE
03
04
FD
FE
FF
00
03
FF
06
F8
F5
F1
F7
0A
02
FD
F1
FE
06
0A
0A
FA
FF
01
06
0C
FF
FC
F9
05
01
02
01
FD
00
0D
07
03
FD
05
FD
07
FE
03
02
00
0A
06
01
00
F5
F9
00
04
F7
FF
F8
FA
FC
F3
00
04
FC
03
F8
F5
F7
00
F8
FF
FA
F0
FC
FF
03
04
F5
FE
07
00
FF
F9
FB
01
02
01
0A
0D
07
05
0E
05
02
F4
FD
FF
F7
F1
F8
F7
F2
F7
FE
07
FC
FD
FB
03
FD
02
0B
03
FE
FE
FD
F8
F4
E9
EF
05
FF
FC
02
04
05
05
05
FF
02
04
FF
00
0B
0A
F7
FD
07
09
02
FE
FD
F9
F1
F7
FB
F6
F1
F2
00
02
05
0D
0C
09
03
FD
FF
08
0D
F6
01
0A
0F
FE
FD
06
02
F9
F2
F2
F3
EC
F4
FC
FF
F8
01
08
FB
F9
FE
FA
FE
FC
F8
00
FB
FC
FD
FF
00
FB
04
09
FE
02
0C
0B
08
00
FC
00
07
09
FC
FD
09
05
09
FC
03
04
04
FA
05
FB
F4
FF
02
FD
04
0B
0A
05
04
01
06
02
FA
00
05
00
FB
F5
02
02
FD
0A
05
F6
F9
04
09
0B
FF
02
FD
FA
00
05
04
03
00
01
03
FF
02
FC
FE
03
01
09
0B
0B
FE
02
FE
FE
03
FB
02
FB
F8
F6
F9
01
06
05
FC
FF
F6
FA
EE
F8
F3
00
F4
F4
FC
07
01
05
FF
FC
0D
06
07
03
F5
03
FC
FC
04
09
F9
FA
F9
F3
F5
F5
FF
F4
03
FA
FF
06
FF
06
F6
07
0B
01
F8
00
00
FF
F3
FA
00
04
06
09
0B
0A
08
05
F8
F0
F9
F9
F1
EB
F2
F7
F7
F3
05
07
FD
FD
04
01
00
07
FC
03
F9
FE
05
FB
03
03
0E
0E
0C
06
03
FE
F2
09
02
FE
FE
0A
FA
F0
F9
02
01
FE
00
05
05
FE
F7
F3
01
01
FD
FA
F5
FA
04
FF
F2
F6
F9
FE
FD
FA
02
FD
02
F8
F3
F1
FC
FE
FD
ED
F9
F7
FA
FD
F7
00
FB
F5
FB
FC
FD
FE
FB
FE
FC
06
00
01
00
01
FA
F9
09
03
FF
FA
08
09
02
FB
04
0A
FD
F9
08
0B
04
F7
04
03
02
FA
01
02
06
F7
FC
02
08
EF
F9
02
0A
05
FB
08
0D
08
F8
04
0A
04
FA
01
02
05
F3
F4
F5
06
06
F9
F8
FD
08
04
F3
FA
01
07
F2
F1
FA
FB
05
FD
F6
02
04
02
FC
FF
02
05
F6
EA
FF
04
02
F6
FD
0C
07
FF
FD
0A
0D
F8
F6
05
05
F7
04
05
09
02
FA
02
FB
04
04
FB
05
F9
FE
F6
F4
FA
02
03
F9
F7
04
FF
06
F8
F6
03
04
FC
F5
F7
03
05
FF
FC
F9
FE
FC
08
FF
F3
06
00
08
FE
F6
07
FF
FB
F1
F2
08
05
FB
F5
02
03
06
03
03
00
F4
05
08
03
EF
06
0A
0D
05
E9
08
09
0E
F9
F3
FE
09
00
F3
01
FE
08
FD
FE
FC
FB
05
FF
FB
01
0B
04
08
FA
FD
04
01
0A
F1
02
0B
02
F7
F3
05
04
FE
05
08
06
07
FD
FE
0A
FF
FB
01
04
05
09
FF
FA
FF
02
0D
FA
F7
02
00
0F
F8
F7
03
FE
FD
FF
02
07
FA
FA
05
F8
02
F5
FF
02
F3
F6
EF
FB
F9
F1
00
04
02
FF
F1
F7
02
FE
F8
FA
FB
FF
FF
02
F8
FD
FC
FB
F9
F5
FF
FC
02
06
FB
01
09
04
05
07
FC
02
01
FB
FA
F9
FF
02
FA
FA
FE
FE
02
FE
01
F8
FE
04
05
FC
03
05
03
04
FA
F5
FE
0D
08
02
FD
00
07
01
07
07
05
06
01
08
04
FD
FF
09
06
F8
FF
08
06
02
FC
02
04
FD
03
F9
FF
05
FD
02
04
02
FD
00
04
03
01
FF
F8
09
01
00
FE
F5
FE
FD
FF
FA
00
FF
FF
F5
F3
FF
01
F6
E5
F3
FF
F8
F7
EA
FD
F4
F6
FC
F2
EA
E5
F8
F9
F9
F8
04
0B
04
FD
00
FC
FF
0A
04
FA
04
04
01
02
03
09
0C
03
FF
FB
0B
04
FC
FD
FA
F2
F7
09
08
07
FC
FF
07
0F
10
0E
06
04
01
08
02
FE
F7
FD
F8
FE
F4
FC
FB
FF
02
FF
0A
0A
03
FE
FD
07
FE
05
07
F8
FB
02
FD
F6
EA
08
FD
FE
FC
06
01
04
FE
07
FA
F4
FC
04
05
07
F7
01
03
08
04
F4
FC
FA
02
FA
00
07
01
FA
F5
07
04
FB
03
03
FE
03
FD
FD
04
FE
02
FE
FE
00
FA
F9
02
F6
E8
02
FD
FA
F8
F9
04
03
FA
06
01
FD
FC
FE
F2
FF
FC
F6
F0
F2
FB
08
05
04
07
08
08
0A
0B
FF
05
06
F7
F8
00
04
00
FE
02
08
05
F8
F6
ED
F5
EF
F7
F8
FB
05
04
03
FF
05
08
FF
02
00
06
02
FE
F5
FE
00
FB
05
04
01
02
FF
FA
09
08
FD
06
FB
02
04
FB
F9
06
06
09
08
08
FE
FF
02
FE
04
FD
04
00
F9
03
01
F8
F9
F4
01
08
F5
00
FF
FA
09
F4
FD
FC
FF
06
04
FA
F9
08
0B
FD
08
01
FE
07
02
02
03
F4
FE
FF
FF
00
FE
F8
00
01
F8
F6
02
07
FB
FA
03
02
07
06
FC
05
01
F9
FA
FD
FD
F8
FA
FE
FC
FD
09
01
F7
04
02
FE
04
01
FE
FE
F8
FD
FA
F9
FB
F4
FF
FC
FF
FE
F8
06
08
FD
06
F9
04
06
02
FC
08
09
FE
02
FD
FF
FF
03
FF
F9
F6
F5
F7
F0
F5
FD
F9
FF
02
06
01
FB
02
06
09
07
FC
F0
F9
00
00
FD
FE
0B
03
00
07
03
02
09
07
07
03
07
07
08
F1
FA
F7
06
FE
F8
FD
F7
EC
F8
01
0B
0A
11
06
01
04
05
05
07
FA
00
02
02
02
F5
F2
F0
F8
FB
F4
F3
F3
F7
F3
FD
FE
F9
FF
06
09
02
FD
05
01
00
FE
FD
FF
03
FF
FF
0A
09
0C
FC
F8
F4
F7
F5
FF
F7
EE
F2
FC
05
07
FD
F9
FE
01
05
07
02
FC
04
07
06
FD
F7
04
03
02
02
01
03
F9
03
0D
0F
FC
FB
F9
F4
06
FB
FF
FA
FE
FF
05
F7
F0
ED
F3
06
0A
0C
08
FB
04
04
05
04
04
FB
03
05
04
07
FD
FB
F7
FC
F3
FA
F9
FA
FF
FA
FE
FE
F9
FC
FB
09
09
0A
05
09
07
0E
0E
06
FE
F9
FD
FC
F5
F8
04
00
01
00
FA
01
FE
F8
FE
02
0D
10
0E
04
06
04
08
FF
F6
F5
FF
FC
F7
FE
FB
00
FF
F8
F5
FD
03
0A
FA
F9
00
F6
FD
FE
00
07
01
00
01
04
FD
FF
FD
FB
FE
F0
FE
01
09
08
02
03
05
00
FE
FE
00
F6
FA
09
04
FC
F7
FF
07
F5
FE
F4
F7
FB
FF
FF
03
00
04
04
05
01
FE
04
F7
02
FC
EF
E9
F3
03
FB
F3
FA
FD
0B
03
04
08
06
FD
FF
03
F3
F7
FB
00
08
09
0B
FB
FA
08
09
04
FA
F3
FA
EB
F0
F5
F7
FE
09
00
00
F9
04
05
07
01
03
FC
FB
07
FF
05
F9
F6
FB
04
FF
03
02
02
FB
FB
01
FA
FA
03
04
05
07
0C
00
05
F4
FA
FB
FC
06
04
FA
F8
01
07
FD
02
FD
00
09
FE
05
06
08
08
02
F9
08
06
0A
07
FB
FE
00
08
FE
01
FC
FE
FF
F3
FE
03
FC
03
01
00
FF
07
02
FA
FB
FF
05
00
F7
FB
FD
07
FF
F0
FF
02
0A
0C
F7
FC
03
0E
03
02
FF
00
05
FE
04
FF
F6
F9
FB
04
FF
F7
FA
FD
06
09
FF
F5
FB
05
01
FE
FE
F3
FC
FA
01
F9
FD
FE
F0
F7
F5
F6
EB
EE
F6
F5
E6
FD
02
02
F8
EC
02
02
02
01
00
08
07
06
01
FE
FC
FB
01
F9
F4
00
00
06
F9
FF
FE
04
00
00
06
06
09
04
05
FD
00
04
FE
00
F9
FC
03
00
01
06
FF
FA
FF
02
FC
FB
FB
FF
FE
00
08
FE
02
0D
0A
09
03
FF
FD
F0
F5
08
09
EA
00
12
00
04
02
0B
0B
05
04
0A
03
FE
FE
03
F8
FB
05
01
F9
FD
F7
FE
07
01
F2
03
08
FF
F9
0D
03
FE
F7
FB
08
FD
F8
F4
FC
F4
F5
F7
F9
FE
FC
03
F9
F6
F9
FE
F9
ED
F1
FE
F9
F9
F9
FC
FF
00
F6
01
06
01
03
08
0A
03
03
F9
F4
09
03
FD
02
07
0B
FE
00
03
07
F3
03
08
F9
F4
02
FD
FC
00
FB
FB
FB
00
FD
06
0A
06
02
03
05
09
0A
06
F7
06
04
09
0A
01
F8
F3
F8
01
FE
FD
FF
02
07
02
08
0A
0A
05
FC
05
07
0D
0A
FC
FB
F8
FC
04
FA
F8
F5
F5
FB
FA
03
FE
FA
F9
03
FF
FC
FE
03
00
FB
F8
F7
FE
0B
FC
F5
F3
02
FF
FF
EF
FB
03
03
00
03
0A
06
02
F8
F6
FA
F7
01
FF
FE
FA
F6
FE
06
00
FE
FC
FF
05
FE
02
05
FE
01
01
03
05
01
00
FA
FB
FE
00
F5
F5
ED
FE
06
FA
03
FB
FC
06
FE
06
02
FC
02
FC
FE
06
FA
00
00
01
07
0D
FF
FD
01
FB
00
05
03
FA
F5
F6
09
03
02
05
07
01
00
06
01
04
FD
FC
F8
FA
FE
FC
FA
F9
00
00
02
04
00
FF
FD
05
0F
0F
08
01
FB
F7
07
09
04
03
FD
00
FF
00
03
FA
FF
01
03
FB
0D
0B
01
FD
F6
03
14
0E
01
F5
F1
F7
09
03
01
0A
FF
01
F9
00
0D
07
03
03
F6
FA
0C
0B
02
FD
EF
F5
00
FE
00
FB
F3
FD
01
FB
FF
FF
FF
FF
FC
02
00
F8
F9
F9
F6
FE
01
F9
05
00
F1
F7
02
FF
02
F8
F1
F6
03
05
FF
FB
01
03
FC
FA
FA
05
00
FB
05
FF
FE
04
FC
FC
F9
FD
06
0C
06
FB
05
FF
03
05
08
03
00
03
00
00
03
F8
FE
FB
05
FE
F4
F0
F1
08
0E
05
0B
F8
F4
FA
00
FA
00
FD
FB
05
04
01
04
03
0B
02
09
08
FF
0A
0C
09
06
F9
FE
01
06
FA
F4
FE
FC
03
05
FE
08
FF
02
09
04
04
FC
00
02
FE
01
F7
F6
F5
F9
F2
ED
ED
F5
F9
FB
ED
FE
0A
04
E9
EB
05
09
FE
DF
FB
09
07
FF
FE
09
0C
06
F6
04
05
FF
F4
F6
04
F0
02
03
FC
FB
FC
03
00
02
FC
FF
04
04
F9
01
02
07
FD
F7
FE
04
0B
F5
02
02
FF
07
08
05
FA
FF
05
0A
00
FF
FD
F2
FB
04
00
F5
F2
FA
06
FD
F9
F9
FE
FC
FA
F9
FE
FC
01
03
FE
05
FB
F9
01
FE
F9
F2
F0
03
FF
FB
DF
F3
EF
F6
F9
F8
FD
F9
FA
FE
06
01
00
08
01
02
0D
F5
04
FA
00
02
F8
FE
03
00
03
01
05
07
FE
FD
F9
FF
05
00
08
FC
03
02
FD
05
F6
01
FB
FE
03
FE
07
05
04
05
07
05
04
FF
00
F2
05
07
FC
01
F5
09
09
FA
FB
06
02
07
F8
FD
FE
FF
05
FC
F8
01
01
02
00
FB
FE
0A
00
FB
F9
02
0A
03
F8
FC
08
07
F6
EF
FA
08
0C
FE
F6
FA
05
06
F9
F3
F3
F9
F7
F6
F8
F7
07
F9
F2
F8
F8
FE
F9
02
01
03
F6
F0
05
03
09
FA
F3
00
05
03
FC
00
FD
02
07
FF
FE
EF
F4
0C
05
F0
F1
FC
FF
FB
F2
F2
06
02
F7
F3
FC
04
FA
