memory_initialization_radix=16;
memory_initialization_vector=
01,
0E,
03,
FD,
0B,
FF,
F5,
FE,
00,
04,
F7,
F3,
F6,
01,
F5,
F6,
01,
01,
FA,
00,
00,
03,
FE,
FD,
08,
08,
06,
FE,
FC,
F8,
02,
05,
FE,
05,
FF,
00,
FD,
FD,
06,
02,
06,
FB,
F7,
FC,
0A,
02,
FF,
FF,
FD,
FE,
FE,
FA,
FA,
09,
07,
05,
01,
04,
08,
00,
07,
0B,
03,
05,
06,
FD,
FF,
FC,
00,
02,
0C,
0B,
FE,
FD,
00,
FA,
04,
05,
08,
F5,
01,
00,
F5,
F8,
FF,
05,
FD,
FE,
FF,
01,
FA,
01,
00,
FC,
FB,
0B,
04,
03,
03,
02,
FC,
00,
FE,
01,
00,
F8,
F6,
FE,
01,
F9,
01,
04,
FE,
02,
03,
05,
01,
04,
01,
09,
FE,
F8,
FE,
01,
02,
F6,
F8,
FE,
07,
05,
02,
01,
F8,
FB,
03,
07,
09,
02,
06,
01,
FD,
04,
07,
0F,
00,
08,
07,
03,
00,
05,
07,
02,
F9,
F4,
F6,
00,
F9,
FE,
08,
04,
FD,
04,
FF,
F8,
15,
0C,
02,
FE,
09,
03,
FF,
FF,
FC,
00,
F6,
FB,
FF,
02,
FF,
F8,
03,
00,
04,
FB,
00,
02,
02,
01,
05,
09,
FD,
09,
03,
00,
01,
07,
FB,
01,
05,
05,
F3,
F4,
FB,
00,
FA,
F5,
F9,
FD,
FE,
02,
05,
03,
FB,
F8,
FE,
02,
F9,
F6,
F2,
FD,
F6,
FE,
07,
03,
06,
09,
01,
02,
07,
0C,
03,
04,
08,
FE,
FC,
FF,
0A,
FE,
FF,
00,
09,
0A,
FB,
F6,
0F,
05,
FD,
02,
00,
01,
00,
FE,
FE,
FF,
00,
FD,
02,
F2,
F7,
FA,
01,
03,
01,
FE,
FC,
FB,
FF,
08,
FD,
F8,
FB,
01,
F7,
FB,
06,
0A,
FB,
00,
FD,
0C,
FF,
FF,
03,
04,
02,
F5,
02,
FE,
FE,
FE,
07,
FF,
F9,
01,
07,
01,
07,
03,
07,
04,
03,
02,
02,
09,
0A,
02,
02,
FF,
FF,
F7,
F9,
F9,
06,
09,
FB,
F2,
01,
02,
FA,
03,
02,
05,
FD,
00,
05,
08,
FC,
F4,
FF,
02,
F4,
02,
01,
F8,
F1,
09,
02,
07,
00,
FF,
06,
FC,
FD,
FD,
FB,
03,
06,
FF,
06,
05,
FD,
FE,
F5,
FA,
FF,
06,
F9,
FF,
FE,
01,
FE,
06,
00,
FD,
04,
04,
01,
FF,
FE,
03,
FF,
04,
05,
00,
FF,
06,
03,
06,
04,
00,
04,
03,
FE,
03,
FA,
FA,
FD,
01,
FA,
F4,
FC,
03,
01,
FD,
FF,
FC,
F7,
FA,
FF,
FD,
F7,
FF,
04,
01,
02,
FF,
03,
03,
0A,
04,
01,
01,
FF,
04,
00,
00,
FB,
FB,
FD,
01,
04,
FC,
04,
FF,
02,
02,
01,
00,
05,
06,
00,
F6,
00,
00,
00,
04,
FE,
FD,
FF,
06,
04,
08,
04,
FA,
0A,
06,
FE,
00,
00,
FB,
FD,
FE,
07,
00,
FD,
FF,
02,
02,
05,
06,
FE,
FF,
01,
FA,
00,
04,
FE,
00,
08,
01,
FD,
03,
F9,
FF,
04,
04,
05,
FE,
FF,
01,
FD,
F7,
04,
01,
FE,
01,
F5,
FA,
02,
05,
F6,
F9,
F7,
FB,
FE,
02,
05,
FD,
03,
03,
FF,
FE,
04,
F8,
FF,
07,
05,
FC,
02,
FF,
F9,
FA,
FB,
01,
FE,
06,
03,
03,
03,
FF,
FD,
00,
F7,
FE,
FB,
00,
FA,
FF,
02,
07,
03,
03,
FC,
03,
03,
01,
FB,
00,
02,
FC,
04,
02,
00,
00,
FE,
06,
FF,
FF,
00,
02,
06,
02,
02,
FC,
03,
00,
03,
03,
FE,
F7,
03,
FF,
01,
FD,
02,
FC,
06,
00,
FA,
FD,
FF,
04,
04,
08,
0A,
FF,
FF,
FB,
FF,
FA,
FD,
01,
00,
07,
FE,
FB,
05,
FF,
FA,
08,
0E,
03,
02,
04,
FB,
FE,
05,
01,
06,
05,
08,
FE,
FC,
FD,
00,
F2,
FA,
02,
FE,
F9,
02,
FB,
FF,
02,
04,
02,
03,
04,
01,
08,
FE,
01,
FF,
00,
FF,
FF,
00,
FD,
FE,
06,
06,
04,
FC,
04,
06,
0A,
FF,
FB,
03,
FE,
03,
07,
0B,
07,
06,
03,
05,
03,
F9,
02,
02,
FE,
F6,
EF,
EF,
F9,
FD,
01,
00,
FC,
FB,
07,
03,
07,
07,
08,
FD,
FF,
F9,
F9,
FB,
F1,
FD,
F9,
F7,
F2,
06,
07,
00,
F8,
06,
03,
F6,
FE,
FF,
FA,
FD,
01,
02,
FE,
02,
FC,
01,
FA,
04,
05,
FD,
02,
FF,
08,
FE,
01,
FE,
02,
F8,
02,
04,
02,
FA,
FF,
07,
04,
FE,
01,
03,
FC,
06,
01,
F9,
FF,
02,
06,
03,
08,
FE,
01,
02,
05,
FF,
FE,
FD,
FD,
F0,
F3,
F4,
00,
00,
FF,
00,
FC,
04,
05,
FD,
04,
04,
04,
07,
0D,
09,
FC,
F6,
FC,
FB,
00,
F7,
F9,
06,
03,
01,
FC,
01,
03,
00,
01,
FC,
02,
06,
06,
FE,
00,
0F,
03,
01,
02,
09,
FE,
FB,
FF,
FF,
FA,
03,
08,
F1,
FC,
02,
03,
F9,
EE,
FA,
FC,
FF,
06,
FF,
05,
01,
04,
F0,
FC,
03,
05,
FE,
01,
03,
02,
FC,
04,
FF,
FC,
02,
FA,
F4,
FB,
FD,
00,
04,
08,
FF,
07,
0B,
03,
04,
09,
04,
05,
01,
05,
05,
06,
03,
06,
05,
00,
04,
FE,
02,
05,
04,
FB,
01,
0B,
05,
F2,
FE,
03,
0A,
F7,
FD,
F7,
06,
03,
FD,
FF,
03,
01,
01,
FD,
09,
00,
FF,
FB,
0C,
07,
FD,
F8,
0A,
01,
F9,
FE,
F8,
F1,
F0,
FA,
FB,
FA,
F8,
FA,
FA,
00,
07,
08,
FB,
FE,
01,
0C,
01,
03,
FC,
0A,
FB,
F6,
00,
FC,
05,
FA,
FA,
02,
02,
07,
05,
FF,
FB,
FC,
FA,
F5,
F3,
00,
02,
02,
F8,
FF,
08,
05,
00,
FD,
FC,
02,
FC,
F7,
F8,
00,
F4,
F2,
FF,
05,
FE,
FF,
01,
03,
F7,
FC,
04,
02,
00,
07,
06,
FD,
08,
0A,
FC,
01,
FF,
0C,
00,
F9,
FE,
01,
02,
FD,
03,
09,
02,
F9,
03,
01,
02,
03,
FF,
02,
00,
FE,
08,
09,
08,
0D,
FA,
00,
06,
01,
F1,
F9,
FD,
FC,
FA,
F0,
FE,
06,
F9,
03,
0A,
05,
F3,
F7,
FC,
FC,
F9,
F4,
F7,
05,
01,
09,
06,
04,
FE,
06,
FE,
04,
03,
06,
FC,
FF,
03,
F4,
FA,
FD,
FC,
00,
04,
04,
01,
00,
07,
FD,
02,
09,
FB,
FB,
0B,
09,
FA,
FB,
02,
05,
FC,
FB,
FA,
02,
F6,
F8,
05,
FC,
FF,
01,
05,
07,
04,
0C,
F8,
FE,
FA,
FC,
03,
05,
07,
0F,
FE,
03,
01,
0C,
02,
02,
FE,
F8,
06,
FE,
00,
FA,
01,
FF,
FF,
FD,
00,
01,
05,
02,
FE,
FD,
06,
08,
FD,
04,
FC,
0C,
FD,
04,
01,
0A,
08,
03,
FD,
F9,
07,
FB,
FE,
FE,
01,
01,
08,
07,
07,
02,
FE,
08,
00,
03,
06,
F0,
02,
06,
FD,
01,
07,
FE,
FB,
07,
01,
03,
05,
00,
00,
FF,
04,
03,
01,
02,
03,
06,
FA,
FD,
FB,
02,
01,
FB,
03,
00,
00,
06,
08,
02,
FD,
03,
05,
F9,
03,
FF,
02,
FB,
01,
FF,
FB,
FB,
FD,
06,
0B,
FC,
00,
00,
F8,
04,
FF,
FD,
01,
0A,
FB,
FF,
00,
00,
F5,
F9,
00,
00,
FC,
00,
FF,
07,
02,
FE,
06,
FC,
03,
FF,
03,
F6,
02,
04,
FE,
03,
FE,
03,
00,
F9,
F9,
FE,
00,
01,
02,
FE,
03,
06,
04,
FB,
FA,
06,
FD,
01,
00,
FE,
FD,
FF,
FA,
05,
FD,
00,
FB,
07,
07,
06,
05,
02,
02,
FE,
FF,
F8,
01,
FD,
FF,
06,
04,
F8,
F8,
FA,
03,
FF,
FB,
F6,
04,
FD,
09,
07,
05,
00,
FF,
F8,
04,
F7,
F5,
F3,
05,
02,
09,
0F,
FF,
FD,
FC,
02,
02,
01,
FF,
F8,
06,
FB,
FC,
01,
FE,
00,
F5,
F9,
05,
F8,
FB,
FD,
02,
01,
06,
0B,
04,
04,
06,
01,
FB,
02,
FF,
00,
00,
07,
FA,
01,
FB,
FD,
00,
0C,
FC,
FC,
F7,
02,
02,
08,
05,
02,
00,
0B,
03,
08,
FB,
02,
FE,
04,
F7,
FE,
FB,
F9,
F9,
FD,
FF,
05,
FA,
01,
04,
0B,
FE,
F8,
01,
09,
04,
03,
01,
04,
FE,
FE,
FE,
FF,
02,
FC,
01,
FE,
FC,
01,
FD,
00,
03,
F9,
F9,
F7,
01,
FE,
FA,
00,
0B,
06,
02,
03,
08,
FB,
FE,
02,
07,
FC,
F6,
FC,
02,
00,
FD,
FE,
08,
FA,
FA,
FA,
01,
F8,
FA,
05,
FE,
FF,
FF,
02,
04,
00,
FC,
FA,
FD,
05,
00,
F9,
09,
06,
FE,
FF,
00,
01,
04,
FD,
F1,
F7,
07,
FD,
FB,
FE,
00,
FC,
FD,
FC,
FC,
FD,
FA,
06,
05,
05,
FB,
02,
03,
08,
02,
00,
FF,
02,
05,
FF,
FE,
02,
05,
07,
04,
04,
F7,
F4,
F4,
F3,
F7,
FF,
FD,
FC,
F6,
FB,
01,
FB,
03,
05,
04,
03,
03,
FF,
FC,
02,
FA,
04,
04,
FF,
F7,
F8,
FB,
FF,
EA,
F2,
F8,
F7,
F9,
02,
06,
00,
05,
09,
FE,
00,
FE,
08,
00,
FB,
FF,
01,
FE,
FE,
01,
FD,
00,
02,
07,
03,
05,
00,
09,
FF,
F6,
FE,
08,
03,
FD,
06,
04,
02,
04,
09,
FE,
FB,
FF,
0C,
02,
FB,
FA,
FF,
01,
07,
09,
08,
08,
F8,
05,
05,
05,
00,
FE,
01,
03,
04,
FE,
F5,
F4,
FC,
01,
FD,
F7,
04,
FE,
FF,
06,
00,
F4,
FB,
F5,
F8,
F7,
06,
FC,
FE,
F8,
F9,
05,
0B,
04,
FF,
0C,
0E,
FC,
01,
05,
FD,
F5,
F9,
F7,
F3,
FB,
04,
FD,
00,
06,
04,
0B,
03,
08,
03,
07,
FF,
FF,
05,
07,
FC,
05,
05,
03,
FA,
00,
FD,
01,
0D,
02,
FE,
03,
06,
00,
F8,
0D,
FF,
05,
00,
FB,
00,
04,
0B,
FA,
FD,
FF,
FD,
FD,
00,
02,
02,
FC,
F7,
FA,
FB,
FE,
FE,
02,
F7,
00,
06,
03,
FA,
03,
FF,
02,
02,
F7,
FE,
F4,
FB,
FF,
03,
F6,
03,
FF,
08,
05,
04,
F9,
FE,
04,
04,
FA,
FE,
09,
08,
03,
FC,
FE,
00,
FB,
FE,
02,
FB,
FA,
FD,
02,
02,
00,
00,
00,
06,
F8,
06,
02,
FE,
06,
0C,
02,
FB,
06,
FF,
00,
FC,
00,
FF,
00,
FB,
F9,
FD,
0B,
00,
FF,
FF,
05,
F7,
01,
FC,
03,
02,
FA,
02,
04,
FC,
FE,
FB,
F8,
FA,
08,
FC,
00,
FD,
1A,
09,
0A,
FE,
0C,
02,
00,
FA,
FB,
05,
01,
01,
02,
FF,
FA,
FD,
03,
06,
FD,
FC,
F9,
F8,
04,
FE,
00,
FA,
02,
FF,
F9,
F8,
05,
04,
FE,
F9,
01,
FC,
0C,
FF,
FF,
05,
FD,
FD,
01,
09,
FA,
00,
00,
FA,
FE,
FF,
FD,
02,
04,
04,
04,
FE,
FE,
01,
FB,
FB,
05,
FE,
03,
02,
FF,
00,
FB,
FB,
FA,
07,
FF,
FC,
02,
02,
03,
04,
FC,
05,
FE,
FA,
05,
00,
FF,
FA,
FD,
FF,
FC,
F9,
F0,
FD,
04,
07,
01,
0A,
FF,
03,
01,
06,
F9,
08,
F8,
FF,
FE,
02,
02,
FB,
05,
FE,
F3,
FC,
00,
FF,
F7,
FD,
FE,
02,
00,
FF,
02,
FF,
FE,
FF,
FD,
FE,
FC,
00,
FC,
01,
02,
FC,
FD,
FC,
01,
00,
FE,
02,
01,
FC,
FF,
FE,
FF,
01,
FF,
FD,
02,
FC,
FE,
01,
03,
03,
FE,
01,
FC,
FF,
FE,
01,
FD,
00,
02,
03,
FF,
04,
FC,
FE,
01,
00,
02,
FD,
02,
FC,
FD,
00,
FC,
FC,
FC,
03,
00,
FE,
FF,
FC,
FC,
FD,
FC,
02,
FE,
FE,
FB,
FE,
FF,
FD,
02,
03,
FD,
02,
FF,
FF,
01,
FF,
03,
02,
FD,
FD,
FB,
01,
FC,
FD,
FD,
FB,
FC,
03,
02,
03,
FD,
FE,
FE,
00,
FC,
FF,
FD,
00,
03,
00,
02,
FD,
FF,
FD,
FF,
FE,
FD,
FC,
FE,
00,
FF,
FC,
02,
02,
FD,
00,
02,
FC,
FC,
02,
FF,
01,
FE,
00,
02,
FE,
FE,
FC,
FF,
02,
FC,
00,
02,
FE,
FE,
FE,
FE,
00,
FB,
01,
FE,
FF,
FF,
01,
FD,
FC,
FD,
FC,
FD,
03,
FD,
FE,
FC,
FD,
FF,
FD,
FF,
01,
FF,
01,
00,
03,
FF,
03,
02,
01,
02,
FD,
FD,
01,
01,
03,
FF,
FF,
02,
FF,
03,
FD,
FE,
00,
02,
FC,
FE,
02,
00,
02,
FE,
FD,
FD,
FE,
FC,
01,
00,
FD,
03,
00,
01,
FE,
02,
FD,
02,
FD,
01,
FE,
02,
FC,
FE,
FE,
FD,
FD,
FE,
00,
02,
FF,
03,
FE,
FD,
FF,
FF,
01,
03,
01,
FC,
FE,
FE,
FC,
01,
03,
01,
FF,
FF,
FE,
FE,
03,
FE,
01,
FC,
FE,
00,
FB,
01,
FC,
FE,
02,
03,
FF,
FD,
FC,
FF,
FD,
FE,
F2,
FD,
03,
00,
06,
04,
01,
02,
05,
02,
08,
FE,
F9,
F8,
00,
03,
07,
FB,
FE,
FA,
03,
03,
00,
F8,
00,
02,
07,
F9,
FE,
FE,
00,
FC,
02,
FE,
04,
04,
05,
FD,
04,
F9,
F7,
01,
00,
FF,
FE,
04,
02,
02,
FE,
FC,
09,
0A,
FE,
02,
FF,
02,
00,
FF,
02,
FC,
FF,
FA,
02,
06,
FD,
03,
05,
04,
03,
FD,
FB,
05,
00,
FE,
FF,
07,
FC,
FC,
07,
FE,
00,
02,
FF,
03,
01,
02,
04,
03,
01,
02,
03,
FD,
03,
F8,
FD,
01,
FF,
FB,
FE,
F4,
F9,
FC,
FA,
FA,
05,
02,
FF,
FF,
FF,
FC,
03,
FE,
07,
FC,
FC,
07,
00,
01,
00,
03,
FA,
00,
FD,
FE,
FA,
FD,
03,
FD,
01,
00,
03,
F7,
FA,
FC,
F9,
F5,
00,
03,
FF,
04,
01,
03,
F7,
FA,
FA,
00,
FD,
F8,
01,
F8,
FB,
F8,
07,
02,
F5,
02,
02,
FE,
FC,
FE,
FC,
05,
01,
03,
03,
04,
01,
07,
FE,
00,
FF,
FB,
FE,
03,
FD,
F9,
FD,
FA,
FF,
03,
06,
00,
06,
03,
FC,
05,
04,
FA,
00,
F9,
03,
00,
FE,
02,
02,
00,
FD,
FF,
05,
02,
FC,
03,
0A,
04,
02,
F9,
F7,
F6,
F9,
03,
05,
05,
00,
06,
04,
05,
05,
FD,
F8,
05,
FF,
01,
F3,
01,
03,
FF,
FD,
F5,
F8,
FD,
00,
F7,
FD,
00,
06,
F7,
04,
FF,
06,
FF,
03,
03,
FF,
0C,
04,
FC,
FE,
07,
03,
01,
05,
F9,
FD,
FE,
FD,
01,
06,
01,
00,
05,
FE,
01,
FD,
F7,
F5,
F8,
FF,
01,
FB,
00,
01,
09,
05,
01,
02,
05,
02,
06,
05,
FD,
F8,
FB,
FD,
00,
F7,
FF,
01,
04,
02,
FE,
05,
05,
04,
04,
F6,
FC,
FA,
03,
FD,
03,
FE,
FF,
FC,
FC,
FE,
08,
00,
04,
FC,
06,
00,
FE,
FF,
FB,
00,
FD,
05,
FE,
FC,
FA,
05,
03,
06,
FE,
07,
07,
FD,
00,
00,
FE,
F8,
02,
0C,
05,
FE,
01,
00,
FA,
F7,
F3,
01,
07,
02,
FC,
FC,
01,
07,
FA,
F7,
FD,
FE,
0B,
FB,
01,
09,
05,
F8,
F6,
06,
F7,
FB,
FF,
02,
F4,
F9,
07,
02,
0A,
03,
FA,
00,
0B,
05,
FC,
01,
FD,
00,
FC,
04,
FC,
F6,
FF,
FC,
08,
03,
05,
05,
08,
FF,
04,
06,
06,
09,
08,
04,
F4,
F8,
FD,
FB,
08,
04,
01,
FF,
07,
FE,
00,
07,
01,
00,
FD,
08,
FD,
FB,
FF,
06,
01,
02,
FF,
01,
00,
06,
FF,
05,
00,
03,
01,
01,
F9,
F4,
02,
04,
03,
FB,
F6,
FC,
01,
00,
04,
02,
FD,
00,
FE,
07,
FD,
01,
01,
FC,
05,
05,
05,
FA,
01,
01,
05,
FC,
02,
01,
02,
FD,
06,
00,
F9,
FA,
06,
FF,
FC,
01,
FF,
F9,
00,
FF,
01,
03,
01,
03,
EE,
F8,
00,
FD,
07,
03,
00,
08,
0C,
0C,
FB,
00,
F9,
05,
04,
08,
00,
FC,
07,
F9,
01,
01,
F9,
05,
F9,
FB,
FF,
02,
FB,
F5,
04,
00,
F6,
FE,
0A,
00,
FF,
F6,
02,
FA,
0A,
08,
03,
06,
05,
07,
02,
02,
F9,
03,
03,
00,
FD,
02,
0D,
09,
FA,
03,
02,
02,
FE,
05,
05,
FD,
01,
FC,
FB,
FB,
FF,
08,
03,
07,
02,
02,
08,
01,
FE,
FB,
03,
FE,
04,
FD,
07,
FB,
04,
05,
09,
F9,
02,
01,
02,
EF,
FF,
FB,
01,
00,
FF,
04,
00,
01,
0A,
01,
EE,
EE,
02,
F5,
FE,
05,
01,
F4,
00,
01,
FC,
FF,
06,
06,
07,
FB,
FA,
FC,
0B,
01,
FB,
FA,
08,
01,
01,
FA,
FF,
03,
05,
02,
00,
00,
FD,
07,
FC,
03,
FE,
01,
05,
0A,
FD,
F8,
04,
FD,
F8,
F9,
F4,
F9,
00,
08,
F8,
04,
06,
02,
03,
00,
07,
05,
04,
FC,
FB,
FE,
FE,
01,
01,
03,
F6,
FE,
0A,
00,
FE,
FF,
01,
03,
00,
03,
03,
03,
F4,
FB,
08,
0B,
FD,
0C,
01,
F9,
00,
07,
FE,
FE,
FF,
05,
FF,
FB,
FC,
03,
F5,
F9,
09,
05,
00,
FE,
FC,
FB,
FD,
03,
00,
08,
FD,
02,
09,
04,
05,
07,
01,
FE,
FD,
F4,
FD,
F8,
FC,
FB,
FD,
F5,
FE,
05,
F5,
FB,
FB,
06,
FC,
00,
08,
08,
0A,
FF,
04,
FC,
03,
03,
FE,
FA,
F6,
FA,
00,
02,
08,
06,
04,
FD,
09,
07,
FE,
FB,
FE,
05,
00,
00,
F6,
01,
FA,
F2,
F8,
04,
0A,
FD,
03,
08,
FB,
FE,
05,
FE,
06,
FE,
0E,
11,
02,
FD,
0D,
02,
FF,
FB,
05,
00,
01,
FA,
F1,
FD,
02,
FE,
0B,
00,
FF,
03,
F8,
FA,
00,
FF,
FD,
04,
FE,
FD,
04,
00,
00,
F8,
F9,
FF,
FE,
FD,
F8,
05,
02,
F9,
F2,
F8,
FC,
F8,
04,
FF,
F7,
01,
FA,
FC,
01,
01,
01,
02,
FB,
F1,
FC,
F7,
05,
04,
02,
FC,
FF,
FB,
FF,
07,
05,
09,
FE,
06,
04,
FF,
08,
FE,
F9,
01,
03,
FF,
FC,
01,
03,
02,
05,
08,
00,
00,
0C,
01,
05,
F3,
01,
08,
03,
FB,
03,
06,
05,
00,
FB,
04,
05,
05,
03,
01,
0D,
08,
FD,
07,
0A,
02,
F9,
09,
F8,
F5,
F0,
F8,
EE,
01,
F7,
00,
F5,
FF,
06,
01,
09,
0C,
04,
FF,
F3,
FE,
FE,
05,
F8,
FB,
FD,
03,
04,
FB,
FF,
01,
FD,
02,
02,
03,
03,
FE,
06,
02,
FD,
01,
02,
04,
E4,
FB,
07,
04,
ED,
FF,
FF,
F8,
F4,
F6,
F5,
F6,
F1,
FD,
FD,
FD,
01,
04,
03,
00,
03,
FF,
FF,
01,
05,
FA,
07,
FC,
0B,
01,
02,
F8,
08,
05,
00,
02,
FF,
02,
01,
01,
FB,
06,
FF,
08,
07,
02,
04,
FF,
06,
03,
FB,
08,
FE,
FB,
FE,
FC,
F8,
F8,
FB,
06,
F3,
F5,
01,
03,
FF,
FD,
00,
00,
0C,
0A,
04,
01,
F8,
F7,
00,
FD,
F8,
FA,
00,
07,
03,
04,
01,
FE,
01,
06,
00,
00,
07,
06,
02,
05,
FE,
04,
F6,
FA,
F9,
F6,
FF,
FF,
03,
FE,
04,
02,
0E,
02,
09,
00,
11,
04,
F9,
01,
13,
0D,
F5,
02,
FC,
FA,
FF,
FE,
01,
00,
0F,
FE,
FC,
F7,
00,
FE,
F6,
F6,
FE,
F9,
FC,
01,
FE,
F6,
FD,
FA,
FC,
FA,
09,
09,
F8,
F7,
05,
05,
FC,
04,
FB,
02,
06,
04,
04,
FF,
01,
00,
02,
FB,
F9,
F8,
03,
09,
FF,
05,
04,
03,
01,
FE,
00,
FF,
01,
02,
FE,
09,
05,
02,
F9,
0A,
04,
08,
FF,
04,
FD,
F9,
F9,
FD,
01,
02,
FD,
FC,
04,
09,
FE,
00,
04,
09,
08,
04,
F4,
FA,
FC,
F7,
FE,
FE,
FB,
F9,
FF,
FE,
FB,
FE,
FF,
FD,
00,
08,
06,
F6,
07,
05,
FE,
02,
0A,
02,
F5,
FB,
FF,
F6,
02,
03,
01,
01,
04,
02,
FE,
01,
02,
08,
07,
F9,
FD,
01,
F8,
FE,
FE,
01,
07,
02,
02,
FD,
05,
04,
00,
FA,
05,
02,
00,
FE,
06,
FE,
FC,
FB,
FD,
01,
02,
0B,
05,
01,
FF,
01,
05,
FC,
F8,
00,
01,
F9,
02,
01,
04,
08,
0B,
02,
FC,
02,
0C,
03,
03,
FF,
06,
FE,
F5,
F8,
05,
FE,
FF,
00,
03,
06,
06,
07,
05,
FD,
FE,
02,
FD,
F8,
F9,
04,
01,
FA,
0A,
06,
FF,
00,
FD,
FD,
00,
0A,
01,
01,
FA,
04,
F3,
FE,
F6,
00,
FB,
F4,
FD,
0C,
FB,
00,
FC,
FA,
F6,
F6,
FA,
FC,
F6,
F5,
F7,
00,
01,
02,
03,
07,
03,
05,
0A,
03,
03,
04,
04,
00,
FB,
02,
09,
FA,
09,
00,
00,
FF,
07,
00,
04,
FD,
FE,
FB,
03,
03,
F3,
F6,
01,
FB,
07,
08,
05,
FC,
FF,
FB,
00,
FB,
0C,
F8,
04,
FC,
04,
FA,
00,
FC,
FB,
07,
02,
00,
F8,
04,
00,
FE,
00,
FB,
FB,
04,
00,
FC,
06,
07,
F9,
F9,
FD,
06,
FD,
02,
05,
02,
FE,
FD,
FC,
04,
0B,
05,
08,
FF,
06,
FB,
FC,
FA,
05,
FD,
02,
04,
06,
FB,
F7,
01,
FF,
04,
FA,
05,
06,
09,
F8,
F7,
06,
03,
FB,
0A,
05,
06,
F9,
04,
FA,
03,
FC,
F5,
06,
06,
06,
00,
02,
01,
05,
03,
08,
05,
04,
FA,
07,
FC,
00,
01,
01,
FF,
FD,
F6,
F6,
F6,
FC,
01,
F1,
FD,
05,
FB,
00,
03,
0C,
03,
FA,
FC,
FA,
01,
07,
06,
F9,
F9,
00,
03,
FB,
06,
05,
FE,
01,
FD,
06,
F8,
FE,
FF,
FA,
FE,
00,
03,
00,
FA,
F9,
F6,
05,
FB,
FB,
F6,
F7,
F7,
FB,
F7,
F8,
FD,
01,
FF,
04,
06,
09,
07,
09,
07,
FF,
0A,
FD,
03,
06,
02,
00,
FA,
FC,
F9,
09,
00,
06,
03,
FE,
F9,
03,
06,
FC,
FE,
08,
02,
03,
00,
00,
FF,
0A,
FC,
FC,
04,
FD,
03,
03,
03,
0E,
07,
F8,
FA,
FE,
FA,
03,
02,
03,
05,
FC,
F8,
0A,
02,
03,
03,
03,
FC,
FB,
08,
FB,
03,
02,
00,
0E,
02,
01,
FC,
08,
03,
FD,
02,
00,
00,
FF,
FC,
F6,
F8,
00,
FF,
F6,
00,
FD,
FA,
FE,
FF,
FF,
02,
FC,
FE,
F5,
FB,
01,
F8,
FD,
00,
FF,
FC,
03,
00,
F9,
FA,
0D,
FE,
FD,
0C,
04,
00,
00,
01,
03,
FF,
00,
00,
FC,
00,
03,
01,
FE,
FB,
FF,
00,
FB,
02,
FE,
00,
03,
00,
FD,
01,
01,
00,
FD,
00,
FC,
FF,
FC,
01,
03,
FB,
FD,
FE,
FC,
02,
FD,
FE,
FB,
FF,
FD,
FC,
03,
01,
01,
01,
00,
00,
FC,
01,
FC,
FE,
FD,
FC,
FC,
FD,
FD,
FD,
FE,
FC,
02,
FF,
FB,
FC,
FD,
00,
02,
FF,
01,
FD,
FF,
FE,
FB,
FF,
00,
01,
FB,
FE,
FF,
FF,
00,
FB,
02,
FB,
FE,
00,
FD,
FD,
FB,
02,
FF,
01,
FF,
FC,
FE,
03,
FD,
FE,
01,
FD,
00,
FE,
01,
00,
FC,
FC,
01,
FE,
01,
FF,
FE,
FE,
FE,
01,
02,
FF,
FD,
02,
02,
02,
00,
00,
FF,
FE,
FB,
FE,
01,
02,
00,
01,
01,
FE,
01,
00,
FF,
FF,
FD,
FD,
00,
03,
FF,
00,
FF,
FE,
FE,
01,
FF,
FD,
00,
FF,
00,
02,
FE,
03,
FD,
03,
01,
01,
FE,
FE,
FC,
FC,
02,
03,
01,
FE,
FF,
FE,
FC,
FD,
00,
FD,
FF,
FD,
00,
FD,
FE,
02,
03,
02,
01,
FF,
01,
02,
02,
FF,
FF,
00,
02,
00,
FC,
FE,
FB,
FE,
00,
FD,
FC,
FD,
01,
FE,
FE,
00,
FF,
FD,
FE,
FE,
FB,
FB,
FE,
01,
03,
FF,
02,
01,
FC,
FE,
FF,
FC,
00,
00,
FC,
FE,
FC,
03,
02,
FE,
02,
FC,
04,
FD,
00,
02,
02,
00,
FE,
00,
01,
FD,
FE,
00,
FE,
FE,
00,
01,
01,
FD,
02,
FD,
00,
FF,
01,
FE,
FE,
FE,
FE,
FE,
00,
05,
05,
03,
FA,
F2,
F9,
04,
FC,
01,
FD,
FC,
0B,
00,
06,
FE,
08,
FF,
F8,
F8,
08,
08,
07,
FE,
05,
01,
03,
FB,
06,
07,
00,
FF,
03,
FB,
FB,
F3,
FD,
02,
01,
07,
05,
FF,
06,
03,
00,
FD,
FF,
01,
04,
FC,
FB,
F9,
03,
01,
0A,
FE,
FC,
00,
06,
FE,
F9,
FE,
00,
FF,
F5,
FE,
01,
04,
FC,
04,
02,
F8,
03,
02,
FC,
02,
02,
FF,
00,
FB,
F9,
05,
04,
09,
FC,
FA,
01,
07,
FC,
04,
00,
00,
00,
04,
F6,
00,
FC,
FD,
FE,
FF,
F9,
FC,
06,
FD,
00,
02,
00,
08,
FE,
04,
04,
01,
04,
00,
02,
03,
07,
FB,
03,
FC,
FD,
00,
02,
02,
FF,
05,
03,
06,
06,
00,
02,
F9,
02,
07,
00,
07,
FF,
01,
FB,
01,
06,
FE,
FE,
01,
01,
FF,
FF,
F7,
03,
00,
06,
00,
00,
FD,
04,
03,
FD,
00,
00,
03,
0A,
02,
03,
08,
05,
00,
F2,
FB,
FB,
02,
05,
FC,
05,
FA,
02,
FE,
00,
F7,
F3,
FD,
05,
00,
09,
09,
FB,
03,
08,
03,
03,
FF,
01,
01,
00,
0C,
06,
FA,
F9,
02,
02,
F9,
F9,
00,
02,
09,
00,
06,
09,
08,
F4,
FF,
FB,
00,
F6,
FD,
FC,
03,
01,
03,
05,
01,
03,
FE,
05,
03,
0E,
FC,
04,
04,
00,
00,
FF,
FF,
F9,
02,
03,
00,
FE,
01,
FC,
06,
FD,
F5,
FF,
FF,
00,
FE,
FF,
02,
00,
FC,
F7,
04,
06,
02,
01,
04,
11,
0A,
09,
01,
FF,
F9,
FC,
02,
03,
07,
01,
FD,
06,
FC,
00,
04,
FD,
FC,
FE,
FC,
04,
06,
05,
FD,
01,
03,
01,
FE,
05,
05,
05,
06,
F9,
F9,
FD,
F4,
01,
FE,
08,
00,
FC,
04,
03,
0B,
FB,
02,
04,
01,
FD,
FA,
FE,
01,
00,
FE,
04,
FD,
FE,
FD,
FC,
FB,
FB,
F9,
02,
05,
F2,
01,
09,
0A,
FC,
03,
FE,
F9,
03,
05,
FC,
03,
FF,
FE,
04,
FE,
05,
FE,
01,
04,
FE,
FD,
FF,
05,
00,
FA,
08,
01,
FC,
01,
02,
FA,
05,
05,
05,
F9,
0E,
FF,
F6,
03,
02,
FA,
04,
04,
04,
03,
0A,
08,
05,
00,
02,
FF,
04,
FA,
FB,
FF,
FE,
05,
FB,
05,
F5,
FD,
05,
02,
07,
F6,
FD,
FD,
06,
0B,
00,
0B,
05,
00,
01,
08,
03,
FD,
04,
02,
05,
00,
FA,
F7,
0E,
FB,
04,
09,
04,
FF,
06,
FE,
03,
FE,
00,
08,
0E,
09,
0D,
08,
F5,
F8,
F8,
02,
FC,
FC,
02,
FA,
06,
FF,
01,
04,
F1,
F3,
02,
06,
FC,
08,
07,
01,
FC,
03,
FF,
FC,
FD,
02,
01,
08,
09,
09,
02,
EB,
04,
00,
F9,
EA,
F9,
01,
05,
01,
00,
06,
0D,
FF,
06,
FA,
FE,
F7,
F9,
FD,
FE,
01,
FE,
FD,
0B,
FE,
FC,
F8,
FD,
02,
11,
FD,
07,
08,
0C,
FA,
FE,
FC,
FF,
03,
02,
06,
FE,
02,
07,
04,
FE,
FF,
09,
06,
F5,
01,
0A,
04,
00,
02,
FB,
00,
09,
00,
02,
02,
03,
FF,
FF,
03,
04,
FD,
00,
02,
FF,
FE,
04,
03,
FE,
02,
FF,
FF,
04,
FF,
00,
FE,
FC,
02,
FD,
FC,
00,
FF,
00,
00,
03,
FC,
FD,
00,
FB,
FC,
03,
01,
FD,
00,
00,
FE,
02,
FF,
02,
FC,
FE,
00,
01,
FE,
02,
FC,
FE,
02,
FC,
FB,
FF,
FC,
00,
FF,
FE,
01,
00,
FC,
FB,
01,
01,
02,
FC,
FE,
02,
03,
02,
02,
FE,
FC,
01,
03,
FE,
FF,
FE,
FC,
FD,
FE,
01,
FE,
02,
03,
FE,
FE,
FE,
00,
FC,
02,
04,
01,
03,
01,
02,
03,
FD,
FF,
01,
FE,
FC,
FE,
FD,
FD,
FC,
FE,
01,
FD,
01,
FC,
FD,
00,
03,
FC,
01,
00,
FC,
FC,
01,
FD,
02,
FC,
02,
FD,
01,
00,
FC,
FD,
FE,
FF,
02,
FD,
00,
FD,
FE,
02,
FE,
FC,
00,
FF,
01,
FF,
00,
FD,
FD,
01,
01,
00,
03,
00,
00,
FE,
FB,
01,
02,
00,
FC,
03,
01,
02,
01,
00,
FE,
00,
00,
FF,
FC,
FD,
FB,
FD,
FE,
02,
FD,
FB,
01,
02,
FC,
FF,
00,
01,
FF,
01,
02,
02,
01,
02,
FC,
00,
02,
FC,
FC,
FD,
02,
05,
FF,
FE,
FF,
FD,
00,
FC,
FC,
FC,
FE,
02,
00,
03,
FB,
FC,
02,
03,
02,
FB,
01,
FB,
FE,
FF,
01,
FE,
FC,
FB,
FD,
02,
01,
01,
FD,
FB,
03,
02,
FE,
FF,
02,
03,
FC,
FE,
01,
02,
00,
FF,
00,
03,
FC,
01,
FD,
FF,
FB,
02,
FD,
FF,
FD,
FF,
FD,
FD,
FE,
01,
FF,
FE,
01,
00,
FF,
FE,
FE,
FE,
FE,
00,
FD,
FD,
02,
FD,
FF,
00,
FB,
FF,
FE,
FF,
FC,
FF,
FD,
00,
FD,
FD,
FD,
FF,
01,
00,
02,
FA,
FE,
FD,
FC,
FF,
FE,
00,
FE,
FB,
FC,
FC,
00,
FC,
01,
00,
FC,
FE,
FC,
01,
FE,
FD,
FF,
FF,
FF,
FF,
00,
FE,
01,
FA,
FD,
FF,
FE,
01,
01,
FB,
01,
FE,
01,
02,
FD,
FF,
FB,
FF,
00,
02,
03,
00,
00,
FE,
FC,
FD,
01,
02,
FC,
00,
00,
FC,
FA,
FB,
FE,
FF,
FF,
00,
FC,
02,
01,
FC,
FD,
01,
03,
FD,
00,
FC,
02,
01,
FE,
02,
00,
01,
FF,
FF,
01,
01,
FC,
FE,
02,
FD,
03,
FF,
03,
FD,
02,
FE,
02,
01,
01,
00,
00,
FE,
FE,
01,
FB,
00,
01,
FC,
FF,
00,
FD,
02,
00,
FB,
FF,
00,
02,
FE,
03,
FE,
FC,
FE,
FD,
01,
02,
FC,
FD,
02,
FE,
02,
02,
FC,
01,
FB,
01,
FD,
FF,
03,
00,
FD,
01,
FE,
03,
FC,
FF,
FC,
FD,
FE,
FD,
FC,
FF,
FD,
FD,
FE,
FC,
00,
00,
02,
FF,
FD,
FE,
FD,
00,
01,
00,
FE,
FC,
00,
03,
FF,
03,
02,
01,
FE,
FE,
FF,
FD,
FD,
FB,
FD,
FE,
03,
01,
FC,
FC,
FD,
03,
00,
01,
FC,
03,
03,
FF,
FC,
00,
FC,
FE,
00,
FB,
00,
FF,
FF,
01,
FF,
FD,
01,
FC,
01,
FA,
01,
FE,
00,
01,
00,
FD,
FC,
02,
01,
FE,
FE,
FF,
FD,
01,
FC,
FC,
FF,
FC,
FC,
08,
08,
FF,
01,
05,
03,
FA,
01,
FD,
FC,
FD,
FD,
FE,
FD,
04,
04,
FF,
FE,
FA,
FD,
EF,
FF,
FC,
07,
06,
FF,
06,
00,
04,
03,
FC,
F8,
EE,
FA,
FD,
07,
FF,
FF,
FB,
02,
08,
FE,
07,
03,
06,
FF,
FE,
F6,
FB,
FF,
03,
06,
03,
03,
F5,
03,
07,
09,
FA,
01,
05,
04,
FC,
F2,
04,
09,
08,
04,
03,
FE,
04,
FF,
02,
FE,
02,
04,
FC,
04,
06,
03,
FC,
03,
06,
03,
04,
04,
02,
01,
04,
0A,
02,
07,
F8,
F3,
FB,
FB,
F1,
F0,
F6,
FB,
F5,
FD,
05,
FF,
09,
07,
09,
06,
00,
05,
FE,
09,
00,
FE,
F7,
FD,
FB,
FE,
F9,
09,
00,
FA,
01,
FE,
FB,
02,
03,
02,
00,
F4,
FD,
FA,
FC,
FF,
00,
F5,
F8,
FB,
00,
02,
04,
00,
F9,
FA,
F0,
F5,
F0,
FB,
FD,
02,
02,
FE,
05,
08,
03,
FA,
01,
F6,
F6,
02,
01,
00,
F9,
00,
06,
03,
F8,
01,
FE,
FD,
FB,
02,
FE,
F8,
FC,
06,
F1,
FC,
06,
0B,
04,
06,
02,
05,
04,
FD,
FB,
04,
03,
02,
FF,
F3,
FF,
EF,
F9,
FA,
FC,
00,
F4,
F9,
01,
08,
FD,
06,
07,
01,
06,
09,
FC,
F2,
F4,
F9,
00,
05,
07,
02,
05,
04,
FF,
04,
FC,
FB,
FD,
06,
FD,
03,
FA,
03,
00,
F1,
00,
F7,
06,
FC,
08,
FE,
0D,
01,
01,
FA,
FD,
01,
FF,
04,
F7,
02,
F9,
06,
06,
06,
00,
08,
00,
09,
03,
00,
0B,
08,
05,
FC,
0C,
00,
04,
04,
0F,
03,
07,
01,
00,
01,
02,
05,
F5,
FD,
FE,
05,
02,
00,
01,
01,
FF,
05,
01,
00,
08,
0C,
01,
F9,
01,
FC,
01,
03,
FD,
FC,
02,
F9,
FE,
F7,
FA,
04,
FD,
FB,
05,
FD,
FB,
00,
FB,
FA,
FE,
00,
FC,
F9,
FF,
FB,
FF,
00,
F6,
03,
09,
FC,
04,
07,
07,
FE,
02,
0B,
00,
05,
FB,
FF,
03,
02,
FC,
00,
0D,
09,
04,
FB,
00,
FB,
FC,
FE,
00,
01,
02,
02,
FA,
FF,
F9,
FF,
FF,
09,
F5,
F8,
FC,
05,
08,
08,
05,
FE,
07,
03,
FE,
FD,
06,
01,
FB,
FC,
FC,
FA,
00,
FD,
FB,
05,
06,
FD,
00,
FF,
02,
04,
03,
FC,
00,
FD,
FD,
FD,
00,
FD,
FD,
FC,
FF,
F7,
03,
FD,
FB,
FF,
0B,
08,
00,
01,
FE,
F9,
FE,
0A,
FF,
07,
FE,
00,
03,
05,
FD,
F9,
06,
02,
FF,
F9,
FB,
FE,
02,
03,
FE,
00,
07,
0C,
FF,
FC,
FC,
09,
FB,
F5,
FC,
07,
02,
FE,
01,
03,
09,
00,
F7,
F9,
00,
FD,
F4,
FA,
FC,
F8,
02,
01,
FD,
FB,
FE,
06,
FF,
FE,
02,
0A,
FC,
01,
FD,
04,
05,
06,
03,
FB,
FD,
FC,
02,
09,
01,
05,
02,
02,
02,
05,
00,
FA,
FD,
F9,
FB,
FE,
FF,
09,
F7,
F9,
05,
FD,
04,
00,
FE,
F8,
01,
09,
07,
FC,
07,
FE,
FA,
02,
02,
01,
05,
03,
06,
05,
FD,
FF,
FD,
02,
F8,
F7,
04,
06,
FE,
FD,
FF,
01,
02,
FE,
02,
01,
02,
02,
FC,
FB,
FC,
01,
FD,
01,
FE,
FD,
01,
FF,
FD,
FF,
FB,
FA,
FE,
FE,
FC,
01,
FD,
FC,
01,
FF,
FE,
00,
FC,
03,
01,
01,
FC,
02,
FC,
FD,
FC,
FE,
01,
FC,
FC,
01,
00,
FF,
FE,
FD,
FF,
FD,
FC,
02,
00,
FB,
FE,
FC,
FD,
02,
01,
01,
FF,
FD,
FF,
FD,
FA,
01,
FF,
01,
01,
00,
FE,
FE,
FE,
00,
FF,
FC,
FD,
01,
FE,
FC,
02,
FC,
FD,
02,
FC,
FC,
01,
FE,
FF,
02,
FE,
FC,
FC,
FE,
00,
FC,
FE,
01,
FC,
FC,
00,
00,
FB,
FC,
03,
04,
FE,
04,
02,
03,
FD,
FF,
02,
01,
FC,
02,
03,
FD,
FC,
FB,
FD,
FD,
FE,
FC,
02,
04,
03,
01,
00,
FC,
FC,
FC,
00,
00,
00,
FC,
FE,
FE,
FF,
FD,
00,
FE,
FF,
FD,
02,
FC,
00,
FC,
FE,
03,
FF,
FF,
02,
FC,
FF,
FF,
00,
FF,
FB,
FC,
FF,
02,
FD,
FF,
02,
FC,
02,
02,
FE,
03,
01,
02,
02,
00,
02,
FD,
00,
03,
FD,
00,
FD,
00,
00,
02,
FF,
01,
01,
00,
FB,
02,
FB,
02,
FC,
00,
FF,
FC,
00,
FE,
FE,
FE,
01,
01,
00,
01,
01,
01,
03,
02,
FD,
FF,
01,
03,
FC,
FD,
FD,
03,
04,
FD,
FE,
00,
FF,
FE,
FE,
FC,
FF,
00,
FF,
FA,
03,
FC,
FE,
03,
FF,
FD,
02,
FE,
03,
FE,
FC,
FC,
FF,
FF,
02,
FF,
FD,
00,
FC,
FF,
01,
FB,
FC,
FD,
FF,
FB,
F9,
00,
03,
FA,
02,
FF,
08,
07,
0B,
05,
0E,
FA,
02,
FE,
08,
03,
04,
00,
0A,
0B,
07,
0A,
04,
04,
FF,
FF,
04,
08,
FF,
FE,
05,
FA,
02,
FB,
03,
FE,
04,
0A,
FC,
04,
FE,
00,
00,
06,
FE,
08,
FD,
FC,
FE,
05,
04,
FF,
00,
FD,
02,
05,
FD,
F7,
FE,
FD,
FD,
03,
FD,
FD,
F3,
0B,
FF,
03,
F7,
F5,
FF,
04,
F8,
03,
01,
F7,
F9,
08,
FB,
FD,
06,
08,
F4,
FA,
FA,
00,
F5,
00,
04,
FB,
05,
07,
FE,
FE,
FC,
FA,
FE,
FD,
FD,
F9,
01,
06,
FA,
FF,
F7,
FE,
FF,
01,
02,
01,
FF,
01,
03,
F7,
04,
FE,
03,
05,
00,
FE,
FD,
F7,
F9,
FC,
04,
04,
07,
03,
FE,
FE,
06,
0A,
04,
FE,
02,
03,
06,
FE,
07,
01,
FC,
F8,
09,
07,
01,
F3,
06,
00,
02,
02,
FC,
01,
01,
FA,
FF,
03,
FA,
F3,
09,
F9,
02,
06,
F7,
F8,
FD,
FD,
FE,
01,
00,
00,
01,
FB,
00,
00,
FB,
FE,
00,
FC,
02,
03,
0C,
0C,
FC,
01,
02,
01,
FF,
FD,
04,
04,
01,
09,
0B,
F9,
02,
00,
FD,
FD,
F9,
FE,
02,
FB,
02,
00,
05,
FA,
00,
FC,
FF,
01,
F9,
FE,
02,
01,
FE,
03,
06,
00,
03,
F8,
00,
F4,
01,
F9,
0B,
0C,
00,
FE,
FB,
00,
F3,
FD,
F3,
FA,
F7,
FE,
FC,
07,
F2,
E8,
FA,
06,
F0,
F7,
04,
07,
FD,
F8,
FA,
FD,
00,
F1,
FD,
01,
FB,
E4,
FF,
02,
01,
F6,
05,
00,
05,
F8,
01,
FD,
07,
FD,
00,
F9,
04,
FB,
03,
00,
FD,
F8,
FF,
F4,
FD,
02,
05,
03,
02,
06,
01,
0E,
01,
FF,
07,
FD,
FF,
F9,
FA,
05,
FF,
FE,
06,
00,
02,
FE,
0A,
FF,
01,
05,
FE,
FA,
FB,
F4,
FE,
FC,
F5,
01,
07,
05,
03,
0A,
06,
F9,
FA,
F5,
F2,
FE,
03,
FE,
F2,
06,
FE,
02,
06,
0A,
F9,
03,
FE,
FC,
FB,
01,
07,
0A,
02,
F8,
FD,
FB,
F8,
F9,
00,
FF,
FB,
ED,
FF,
FD,
F0,
F4,
F2,
FF,
FF,
0C,
16,
03,
05,
08,
0D,
FA,
FC,
F7,
F4,
01,
F8,
FC,
FD,
04,
F8,
00,
08,
07,
FC,
05,
03,
03,
03,
00,
F9,
04,
F8,
FC,
06,
09,
F9,
FA,
FC,
F7,
FE,
EC,
F7,
FA,
0C,
FF,
02,
04,
FB,
F2,
F7,
FB,
F0,
05,
04,
F8,
FD,
04,
FB,
00,
FE,
F7,
02,
00,
01,
07,
F6,
FB,
06,
FC,
00,
03,
FE,
FD,
FB,
08,
05,
FE,
FE,
FD,
0D,
01,
00,
02,
02,
00,
05,
06,
F5,
F3,
FD,
FE,
F7,
FC,
01,
02,
F6,
FF,
07,
FE,
FA,
00,
FC,
F6,
08,
05,
01,
00,
06,
FE,
F7,
FC,
01,
03,
03,
02,
02,
07,
FD,
F5,
FA,
04,
FC,
FD,
F9,
FC,
FD,
FF,
F2,
F7,
00,
FE,
F6,
F7,
0C,
0D,
04,
FB,
0F,
0A,
05,
FD,
FE,
FC,
09,
F9,
FA,
01,
FB,
F6,
02,
03,
FB,
F1,
03,
00,
F3,
05,
03,
FF,
01,
FB,
00,
02,
00,
FB,
05,
02,
FB,
01,
03,
00,
FA,
FB,
FE,
02,
00,
FC,
FC,
F8,
FD,
FF,
F9,
F9,
01,
FD,
02,
FB,
FD,
02,
FE,
FE,
05,
01,
00,
F7,
04,
FB,
FC,
00,
FB,
02,
FD,
FE,
FF,
FE,
FA,
02,
05,
FD,
07,
FC,
FF,
01,
FC,
FB,
00,
FD,
FD,
00,
FF,
F9,
F9,
01,
FC,
00,
00,
00,
FB,
01,
06,
FD,
FE,
FE,
01,
FA,
04,
FF,
04,
FF,
01,
FD,
FE,
FF,
03,
01,
FF,
FC,
01,
FF,
00,
FF,
FB,
01,
FD,
02,
FF,
F7,
FC,
FD,
FF,
FC,
F8,
F8,
03,
FC,
FC,
00,
FF,
FC,
FD,
01,
FC,
FE,
FF,
FF,
FD,
F8,
FA,
FC,
05,
00,
FF,
F7,
FD,
FF,
03,
02,
FE,
02,
01,
01,
03,
00,
FF,
FC,
00,
FE,
00,
FD,
FE,
FB,
FB,
FC,
FC,
FE,
F8,
00,
03,
02,
F9,
FB,
01,
05,
04,
01,
FD,
01,
FF,
FC,
F9,
F8,
01,
03,
03,
FD,
04,
03,
FC,
FC,
FD,
FF,
07,
03,
FB,
00,
FF,
FE,
FF,
00,
00,
00,
F7,
FC,
FF,
FD,
F9,
FA,
00,
FD,
FF,
FE,
07,
02,
FE,
F9,
FC,
03,
01,
FF,
01,
02,
FF,
00,
FD,
00,
00,
FE,
FC,
FD,
03,
03,
05,
03,
FE,
FC,
FC,
03,
02,
03,
F9,
FE,
FC,
FB,
F9,
02,
01,
FC,
FC,
04,
FF,
FD,
FF,
FB,
02,
FB,
FC,
FD,
FF,
00,
FC,
FD,
06,
FD,
00,
02,
04,
02,
01,
05,
00,
FF,
04,
03,
F8,
02,
FE,
FF,
F9,
FB,
02,
FD,
02,
FF,
07,
02,
0A,
07,
FF,
00,
05,
02,
01,
FF,
06,
0A,
08,
02,
00,
06,
09,
02,
01,
02,
07,
06,
01,
FA,
09,
03,
02,
FE,
F9,
00,
FD,
07,
FA,
00,
FF,
03,
FF,
02,
F9,
04,
FF,
FA,
FC,
FD,
F8,
02,
FC,
FE,
05,
04,
FA,
F7,
00,
05,
00,
02,
FA,
05,
FE,
FC,
FF,
01,
FF,
FA,
FD,
0C,
03,
02,
FE,
02,
07,
0A,
00,
01,
05,
FE,
FC,
FF,
FC,
FB,
F9,
FF,
07,
FF,
F7,
FE,
00,
00,
FC,
FD,
09,
0B,
02,
04,
05,
08,
09,
05,
FB,
FA,
01,
FE,
00,
F6,
08,
FE,
02,
FC,
01,
FC,
07,
FD,
FF,
00,
FD,
FD,
F9,
F9,
00,
FA,
FD,
FD,
FB,
FC,
00,
02,
01,
02,
0D,
04,
FE,
03,
0E,
03,
02,
02,
09,
07,
03,
00,
05,
02,
03,
FB,
FF,
01,
FD,
FE,
FB,
03,
01,
FB,
FF,
F8,
FD,
FD,
F8,
FD,
06,
06,
F3,
FB,
05,
FC,
F9,
F9,
FB,
FA,
04,
F9,
FC,
00,
F7,
FD,
02,
09,
01,
06,
FF,
FC,
FF,
04,
FF,
02,
03,
06,
FC,
FE,
00,
00,
FC,
FA,
06,
03,
02,
04,
04,
FE,
01,
F4,
00,
05,
01,
03,
02,
05,
01,
04,
00,
07,
FE,
F8,
02,
FC,
FA,
FF,
FE,
FB,
00,
05,
FB,
07,
00,
09,
02,
06,
FD,
04,
FD,
07,
01,
07,
F5,
F8,
01,
03,
FB,
F9,
06,
04,
F3,
FD,
07,
FE,
FA,
FD,
02,
08,
F9,
01,
F5,
08,
F3,
09,
FA,
00,
FB,
00,
02,
F9,
01,
05,
FC,
F9,
07,
03,
FC,
F8,
06,
F9,
F2,
F5,
02,
03,
02,
01,
F9,
F5,
07,
03,
03,
01,
02,
FB,
FE,
FC,
F7,
FC,
01,
01,
FA,
03,
F7,
FE,
01,
FF,
FD,
FC,
FE,
EF,
F9,
FF,
FC,
FD,
08,
09,
F9,
02,
05,
FE,
04,
09,
02,
FE,
09,
03,
02,
FC,
03,
02,
05,
F7,
03,
02,
FE,
FC,
F8,
FD,
F7,
F8,
FA,
03,
FB,
FE,
FB,
09,
01,
08,
FC,
04,
0A,
0B,
F2,
F9,
00,
F8,
F9,
FC,
F1,
F7,
F8,
F8,
FD,
01,
04,
03,
FB,
03,
02,
FE,
0A,
FD,
08,
05,
FD,
FF,
02,
00,
02,
00,
00,
FB,
F8,
FE,
FD,
01,
FA,
F9,
F7,
F7,
03,
07,
F8,
F2,
F5,
F1,
F5,
FB,
00,
00,
08,
FF,
01,
F5,
01,
F8,
F8,
00,
01,
00,
05,
FC,
01,
F6,
03,
07,
01,
03,
06,
01,
F8,
08,
FD,
01,
0A,
08,
FC,
04,
07,
02,
0B,
06,
F7,
FF,
FF,
02,
FC,
FD,
F8,
01,
FC,
FB,
08,
02,
F2,
FD,
09,
F7,
00,
04,
05,
03,
02,
08,
00,
F8,
F9,
FA,
FC,
FD,
FD,
FC,
FE,
FC,
F9,
FC,
FE,
FD,
FD,
05,
FA,
FA,
F9,
FA,
F9,
02,
F6,
F7,
02,
08,
FA,
00,
FB,
01,
FF,
F7,
F9,
FD,
00,
06,
09,
FF,
FC,
03,
FD,
FD,
06,
01,
F9,
06,
02,
07,
F9,
0B,
02,
07,
08,
07,
F2,
00,
0F,
FE,
F8,
05,
FF,
10,
FE,
FD,
FA,
00,
FE,
FE,
FC,
F9,
09,
04,
02,
05,
FC,
FE,
00,
FF,
06,
06,
0F,
09,
01,
06,
05,
06,
FB,
FF,
02,
01,
01,
FD,
02,
FE,
FD,
00,
00,
FB,
04,
08,
03,
0A,
02,
05,
FF,
05,
03,
08,
03,
00,
06,
F4,
FF,
04,
05,
03,
03,
04,
02,
FB,
FC,
FE,
06,
FC,
FE,
04,
01,
FF,
FD,
00,
02,
F9,
04,
F9,
FF,
09,
02,
F0,
F2,
04,
FC,
03,
FE,
01,
FE,
03,
FD,
FE,
F7,
FE,
00,
00,
05,
0F,
FF,
FF,
01,
02,
FA,
05,
06,
02,
FD,
00,
FD,
00,
FA,
00,
01,
00,
00,
FF,
FC,
01,
03,
06,
02,
FD,
FD,
FF,
01,
03,
02,
05,
01,
04,
01,
04,
06,
FB,
00,
00,
04,
0E,
07,
07,
04,
09,
06,
09,
02,
FF,
F9,
0C,
06,
03,
02,
08,
07,
FE,
FC,
00,
FC,
F8,
FC,
FC,
FD,
02,
FF,
02,
08,
07,
00,
02,
FA,
F8,
FD,
FE,
00,
01,
04,
FF,
08,
05,
00,
00,
02,
FE,
FE,
FA,
F9,
02,
00,
FB,
FD,
06,
FF,
FB,
03,
03,
0A,
04,
00,
00,
FE,
05,
03,
02,
FB,
05,
F7,
FE,
FF,
02,
FA,
FF,
03,
07,
FD,
FE,
FA,
03,
FA,
F9,
01,
00,
F8,
00,
04,
05,
06,
02,
06,
00,
05,
05,
FC,
FA,
03,
01,
FC,
FC,
04,
04,
FE,
F9,
FD,
00,
03,
04,
FC,
F6,
00,
02,
F9,
01,
00,
FD,
F6,
FF,
F9,
FC,
08,
FF,
F8,
FC,
0C,
0D,
FF,
FD,
01,
FF,
FA,
FE,
03,
01,
FE,
00,
FF,
F8,
FD,
03,
FE,
00,
FE,
F7,
FD,
04,
FD,
06,
03,
04,
07,
00,
04,
02,
FD,
FE,
07,
FA,
F6,
FD,
FF,
FF,
02,
01,
01,
FD,
FD,
00,
02,
03,
02,
FC,
FA,
02,
FA,
08,
FF,
FB,
F9,
08,
02,
01,
FC,
03,
05,
02,
FF,
06,
FE,
08,
0F,
0B,
FB,
05,
04,
FD,
FB,
03,
05,
03,
FD,
00,
0E,
FF,
01,
FE,
07,
04,
03,
FD,
FE,
05,
02,
FF,
02,
07,
FD,
FA,
F9,
04,
03,
00,
0A,
02,
08,
00,
03,
FF,
09,
FF,
05,
04,
05,
FF,
04,
05,
05,
01,
FE,
FC,
04,
FD,
01,
08,
00,
FB,
FA,
FB,
F6,
02,
05,
FD,
FF,
FD,
F9,
03,
FF,
FA,
F9,
F9,
FC,
FB,
01,
02,
0A,
04,
01,
FB,
03,
00,
02,
FA,
00,
01,
09,
06,
06,
03,
07,
00,
04,
03,
01,
04,
01,
FB,
00,
00,
06,
FE,
00,
03,
FD,
FF,
04,
03,
FF,
FD,
FE,
05,
FB,
FE,
FF,
FB,
06,
06,
FF,
0B,
00,
FE,
FF,
02,
02,
01,
FC,
FD,
06,
FF,
FF,
EF,
FD,
04,
02,
F5,
02,
02,
04,
FF,
01,
FE,
00,
FF,
06,
FB,
FC,
FF,
00,
02,
FF,
04,
01,
02,
FB,
00,
FF,
F8,
F6,
FF,
0B,
02,
00,
08,
09,
01,
FE,
00,
01,
FA,
00,
00,
01,
03,
01,
FF,
FF,
F6,
09,
02,
FB,
05,
FE,
FE,
02,
01,
01,
02,
FC,
07,
05,
05,
06,
FE,
04,
FC,
04,
FD,
FD,
F6,
04,
00,
F9,
FC,
FD,
03,
FE,
FD,
08,
FE,
00,
FB,
01,
FC,
FF,
03,
00,
FD,
FD,
08,
FC,
00,
04,
0A,
FC,
FD,
00,
00,
03,
02,
01,
FA,
02,
FB,
02,
08,
02,
02,
03,
FC,
05,
00,
00,
F9,
00,
02,
FA,
02,
02,
FA,
FD,
03,
FE,
01,
F7,
03,
FA,
00,
FC,
04,
FA,
FC,
04,
07,
FF,
F4,
FC,
FA,
FA,
FD,
F7,
F5,
FA,
FF,
F9,
FC,
00,
01,
FC,
F9,
00,
FC,
FE,
FC,
02,
FA,
FA,
F8,
01,
02,
FF,
FC,
FF,
03,
09,
FC,
03,
FF,
FF,
0B,
01,
01,
07,
07,
FD,
00,
05,
07,
FB,
00,
05,
00,
08,
FE,
03,
05,
04,
01,
FE,
FC,
02,
02,
03,
02,
06,
F9,
00,
05,
03,
0A,
05,
FE,
FF,
01,
02,
06,
FC,
02,
00,
01,
FB,
F4,
02,
FC,
06,
03,
05,
0A,
FB,
FD,
FF,
FE,
04,
01,
00,
FA,
FD,
F8,
01,
02,
01,
02,
01,
FA,
0B,
FF,
FA,
02,
FE,
FD,
00,
F8,
FD,
02,
00,
FC,
03,
04,
FA,
03,
FB,
F4,
FB,
FC,
00,
FD,
FB,
FB,
FA,
FA,
FB,
13,
05,
FA,
FB,
08,
07,
02,
05,
00,
F9,
FE,
FB,
05,
04,
FB,
F8,
00,
06,
02,
03,
FC,
FE,
FC,
FE,
FC,
FB,
02,
09,
F8,
FF,
0B,
03,
FF,
FF,
FC,
03,
05,
FF,
FD,
FE,
FF,
00,
01,
FE,
FB,
FE,
FF,
01,
F6,
FE,
F9,
FA,
F6,
0B,
FB,
F7,
F8,
02,
FE,
03,
FD,
02,
FF,
FC,
03,
FD,
FD,
02,
FF,
FF,
03,
FC,
FE,
01,
FF,
00,
FF,
FF,
03,
FF,
01,
02,
03,
01,
02,
FF,
00,
FE,
FC,
03,
FC,
FD,
FE,
FC,
FD,
FD,
00,
FC,
FD,
FE,
FD,
00,
00,
00,
03,
FE,
FE,
01,
04,
01,
FF,
01,
FB,
FD,
FE,
FC,
FC,
FC,
01,
01,
FF,
FE,
00,
02,
FC,
03,
01,
FE,
02,
00,
FE,
03,
01,
02,
FE,
FC,
03,
00,
01,
FE,
01,
FC,
00,
03,
FE,
03,
01,
01,
03,
FE,
FE,
02,
FD,
FC,
02,
FC,
FE,
00,
00,
FD,
FE,
02,
FD,
02,
00,
FE,
FC,
FE,
03,
FD,
FC,
FF,
02,
FE,
03,
03,
03,
FD,
FD,
FC,
FF,
FD,
01,
00,
03,
FC,
FC,
FF,
00,
03,
00,
03,
FF,
FF,
FE,
FE,
FE,
FC,
FF,
FE,
FD,
FC,
FC,
FE,
FC,
03,
FE,
01,
FD,
00,
FC,
02,
02,
FC,
01,
00,
FD,
FE,
03,
FD,
03,
00,
01,
FD,
01,
00,
03,
FB,
FE,
00,
FD,
00,
03,
02,
FD,
01,
FD,
02,
FC,
FC,
01,
FF,
01,
03,
03,
02,
FC,
FF,
00,
FC,
03,
02,
FE,
FF,
FD,
01,
00,
FE,
02,
FF,
00,
02,
FE,
FC,
02,
FD,
01,
FE,
02,
FF,
FE,
FD,
02,
FD,
01,
03,
FC,
FC,
00,
FE,
FC,
02,
FC,
FE,
FC,
00,
00,
01,
01,
FF,
FE,
03,
00,
00,
FD,
FC,
FD,
FD,
01,
FE,
00,
03,
FE,
00,
00,
02,
01,
FF,
02,
FF,
FF,
FE,
FC,
FF,
FF,
01,
03,
F8,
FB,
01,
01,
F9,
EB,
06,
01,
03,
FC,
FE,
01,
08,
03,
02,
FB,
0C,
02,
FA,
03,
00,
00,
FF,
05,
02,
00,
02,
01,
FE,
05,
F9,
F6,
06,
FF,
03,
01,
0B,
08,
01,
08,
F8,
FE,
FD,
04,
04,
FD,
07,
FA,
03,
01,
FB,
01,
07,
06,
FB,
FA,
FF,
02,
FF,
F7,
FF,
04,
04,
04,
FE,
FF,
F9,
FB,
FE,
06,
F9,
F8,
01,
00,
FC,
FA,
FB,
04,
00,
FF,
FE,
FB,
FD,
03,
FB,
F9,
06,
00,
04,
0A,
06,
00,
01,
00,
FD,
00,
04,
F4,
F7,
02,
FD,
FE,
07,
04,
FF,
02,
04,
00,
09,
06,
01,
FD,
08,
FA,
F8,
FF,
01,
07,
06,
01,
FD,
06,
00,
FE,
08,
01,
FA,
F3,
0C,
0A,
FA,
03,
01,
FE,
FD,
02,
F5,
F5,
F9,
06,
00,
02,
FD,
01,
07,
F9,
04,
04,
00,
FA,
01,
03,
FA,
03,
00,
09,
08,
FF,
03,
0A,
F9,
F6,
FB,
02,
04,
FD,
05,
FC,
07,
FB,
03,
FC,
FC,
03,
00,
F8,
03,
02,
01,
02,
06,
04,
04,
01,
03,
FF,
FF,
01,
04,
04,
03,
FF,
08,
FE,
F7,
F5,
01,
09,
04,
08,
F7,
FD,
01,
07,
00,
03,
02,
FC,
00,
FF,
FC,
00,
FD,
FE,
05,
04,
05,
FF,
02,
00,
06,
FD,
0C,
FA,
04,
00,
FF,
F8,
00,
05,
04,
FD,
FA,
FD,
FB,
FE,
FD,
FC,
00,
06,
F3,
FD,
06,
01,
FE,
FE,
00,
FB,
0C,
FE,
FC,
FD,
00,
FE,
00,
04,
FC,
F9,
F9,
02,
F8,
F9,
F8,
FD,
04,
06,
02,
FE,
08,
04,
FE,
F4,
06,
08,
FF,
FA,
07,
06,
FE,
FF,
00,
00,
FE,
F7,
0C,
04,
02,
FC,
00,
03,
01,
00,
00,
03,
FA,
FF,
FE,
05,
FC,
FC,
FA,
02,
FF,
FB,
FA,
02,
06,
00,
F9,
FD,
F9,
FA,
FC,
01,
FB,
FA,
FA,
03,
01,
03,
00,
00,
04,
F5,
04,
03,
FA,
FE,
FD,
05,
FE,
01,
FA,
F8,
FF,
03,
F3,
FD,
05,
FD,
FA,
00,
04,
03,
01,
02,
FF,
FE,
06,
01,
04,
02,
03,
02,
FE,
07,
FB,
FD,
05,
04,
F8,
FC,
04,
04,
05,
FE,
FE,
FF,
06,
FF,
03,
FE,
FC,
F9,
FD,
02,
FC,
01,
05,
FF,
00,
FF,
05,
FB,
05,
08,
FD,
FF,
08,
03,
01,
FC,
08,
04,
FD,
03,
09,
0F,
03,
FB,
0C,
FF,
F9,
07,
00,
FD,
04,
01,
04,
02,
03,
FF,
04,
FB,
FD,
09,
03,
04,
FA,
06,
F4,
02,
02,
FC,
F8,
FA,
03,
07,
FF,
FC,
FC,
00,
FC,
00,
08,
05,
F7,
FD,
02,
04,
FC,
FD,
01,
01,
01,
0E,
0E,
F5,
FE,
FF,
FF,
FD,
F8,
01,
FC,
03,
FF,
F9,
01,
FC,
01,
FD,
02,
02,
F2,
F0,
FA,
01,
F9,
FF,
00,
00,
01,
01,
FF,
FD,
07,
FD,
01,
0C,
01,
07,
00,
00,
F4,
01,
04,
FC,
02,
03,
FC,
FF,
F8,
F2,
00,
07,
F4,
03,
04,
0A,
E8,
F8,
00,
01,
FB,
FE,
09,
04,
FE,
FB,
FF,
FF,
FE,
01,
FE,
02,
FD,
FA,
01,
FD,
03,
FD,
00,
02,
FE,
FF,
00,
05,
00,
01,
03,
01,
FF,
03,
FC,
FF,
FD,
FF,
FF,
03,
00,
01,
02,
02,
FE,
02,
02,
02,
00,
03,
FC,
FF,
FB,
00,
FF,
FE,
03,
FC,
02,
04,
FE,
FB,
02,
FD,
FC,
01,
00,
FC,
FD,
FC,
FF,
FF,
FB,
FC,
FD,
FB,
FC,
02,
FC,
02,
01,
FD,
FF,
FF,
01,
05,
00,
FD,
00,
FC,
FF,
02,
FF,
FB,
FD,
FC,
01,
FC,
03,
01,
02,
FE,
FF,
FF,
00,
00,
00,
00,
FF,
03,
FF,
00,
00,
FB,
00,
FD,
FD,
FF,
FE,
00,
FF,
FC,
FF,
FC,
FC,
FF,
FE,
FB,
00,
FF,
00,
FD,
FE,
FD,
FF,
FC,
01,
00,
02,
FB,
01,
FF,
FF,
FE,
FE,
FE,
00,
02,
FB,
FE,
01,
02,
FF,
FE,
FF,
FF,
01,
FD,
FA,
FF,
FE,
00,
FB,
02,
FF,
FE,
FC,
00,
03,
05,
FF,
00,
05,
00,
02,
03,
FD,
FB,
FE,
FF,
03,
FB,
00,
03,
01,
FB,
FC,
01,
00,
00,
03,
01,
FB,
01,
01,
FB,
FC,
FB,
F9,
01,
00,
FD,
FB,
FC,
02,
00,
FE,
FD,
00,
00,
00,
FE,
FD,
FD,
00,
01,
02,
FC,
00,
FA,
00,
FC,
FC,
FC,
02,
02,
FD,
FF,
FC,
FB,
FC,
00,
FE,
FC,
00,
01,
00,
01,
04,
F9,
FC,
02,
00,
00,
01,
FC,
FE,
FB,
02,
01,
FC,
FE,
04,
FF,
FE,
FF,
FE,
FF,
00,
00,
00,
FF,
FD,
03,
03,
09,
FF,
F9,
00,
11,
09,
FC,
F8,
03,
0B,
FF,
F7,
03,
FE,
03,
00,
01,
01,
01,
FF,
06,
05,
02,
01,
00,
01,
0E,
FF,
00,
02,
03,
F5,
03,
01,
00,
02,
07,
02,
02,
03,
07,
02,
03,
FF,
05,
F9,
00,
FF,
FA,
FE,
FE,
FD,
FD,
FA,
03,
FD,
01,
05,
00,
FE,
F9,
F4,
F7,
06,
01,
FC,
FB,
04,
01,
FC,
03,
00,
02,
F5,
F8,
06,
FE,
F6,
04,
FF,
FC,
F8,
02,
FE,
FD,
FC,
FC,
F9,
04,
FE,
FB,
02,
0C,
06,
FC,
F4,
04,
FE,
01,
02,
00,
FB,
04,
FB,
F3,
F6,
03,
09,
05,
08,
01,
FE,
FC,
02,
05,
08,
FD,
FF,
FF,
05,
FF,
01,
04,
06,
09,
03,
FC,
02,
03,
02,
02,
03,
01,
F7,
06,
09,
05,
00,
FF,
F9,
FC,
FD,
09,
F8,
00,
08,
0A,
0A,
F4,
FB,
04,
F9,
FE,
00,
03,
FD,
03,
01,
01,
03,
0E,
01,
FB,
F4,
03,
FE,
00,
00,
03,
03,
FF,
06,
06,
02,
02,
00,
F9,
07,
FE,
FB,
FB,
FE,
FD,
FF,
FD,
07,
05,
0E,
05,
FF,
FD,
F9,
FF,
FF,
00,
08,
02,
FD,
0A,
06,
FA,
FB,
03,
F8,
02,
01,
08,
F7,
03,
03,
00,
08,
05,
F9,
FE,
01,
00,
00,
FD,
03,
0A,
04,
03,
F7,
FB,
09,
FD,
FD,
04,
04,
02,
FB,
00,
F7,
FC,
00,
FF,
FC,
FD,
F8,
FE,
FB,
00,
F9,
FC,
03,
FB,
02,
02,
08,
03,
0E,
03,
FF,
FB,
03,
09,
FC,
F3,
06,
04,
01,
06,
FE,
02,
05,
03,
FE,
05,
F9,
00,
F3,
01,
FE,
08,
FE,
F7,
F8,
06,
05,
07,
FA,
06,
07,
04,
03,
FA,
FC,
01,
03,
0E,
F8,
00,
06,
03,
05,
FD,
FC,
FF,
00,
FB,
FC,
05,
00,
FD,
01,
FF,
F8,
05,
03,
F9,
07,
FE,
04,
FD,
07,
FE,
04,
FC,
0A,
09,
FF,
EE,
05,
02,
08,
F8,
02,
FD,
06,
FF,
00,
F9,
FE,
08,
FD,
FF,
FA,
FA,
F5,
02,
01,
FB,
FA,
03,
02,
FD,
02,
08,
FC,
01,
04,
07,
07,
05,
07,
01,
04,
FF,
03,
00,
F5,
F7,
FF,
00,
FB,
FC,
FF,
03,
04,
06,
FA,
FF,
05,
06,
FC,
00,
FC,
02,
01,
FB,
01,
06,
FA,
04,
FF,
00,
05,
03,
07,
FD,
05,
05,
F6,
F2,
06,
01,
FD,
FD,
00,
03,
04,
0A,
03,
FB,
FF,
00,
01,
FB,
F4,
FD,
00,
03,
00,
FE,
FA,
FE,
FF,
FC,
00,
FF,
01,
09,
FF,
00,
03,
04,
FA,
05,
FC,
FE,
FB,
04,
FE,
07,
FE,
FE,
F7,
F5,
FF,
08,
F9,
FA,
02,
00,
02,
FC,
03,
F9,
F5,
03,
04,
01,
02,
07,
FE,
FF,
03,
08,
F9,
F8,
FA,
F1,
00,
FE,
02,
03,
01,
FC,
00,
01,
FD,
01,
FC,
FC,
07,
FF,
FC,
F8,
F7,
01,
FB,
F8,
FF,
02,
00,
FB,
0B,
04,
FA,
FF,
05,
FD,
04,
FF,
04,
06,
02,
FC,
FD,
03,
FF,
FE,
00,
FD,
FC,
FD,
FD,
F8,
F9,
03,
04,
09,
0E,
FF,
00,
10,
0A,
08,
02,
07,
04,
04,
07,
F8,
FD,
F7,
FD,
F7,
F5,
FF,
FF,
F5,
FA,
FA,
F6,
F6,
F1,
FB,
FA,
F8,
03,
09,
FC,
FE,
F7,
02,
06,
06,
F5,
F0,
FD,
01,
FE,
02,
F1,
FF,
03,
FB,
04,
FD,
FA,
F4,
F8,
F3,
FD,
F5,
FD,
FD,
FC,
FB,
FA,
F5,
FF,
FA,
02,
F9,
FF,
F9,
00,
02,
FF,
01,
03,
FD,
02,
FE,
07,
F9,
01,
FD,
02,
03,
03,
FC,
FC,
06,
04,
05,
F0,
04,
01,
07,
FE,
02,
06,
0B,
FB,
04,
F3,
F8,
FB,
04,
01,
03,
FB,
F8,
FF,
06,
F9,
06,
07,
06,
07,
04,
FE,
F0,
01,
04,
05,
F9,
06,
F6,
FC,
FF,
FA,
FF,
0B,
05,
04,
01,
04,
01,
FA,
F6,
03,
04,
F5,
FB,
03,
02,
FE,
F7,
F7,
00,
00,
01,
01,
01,
FD,
F7,
FA,
00,
FC,
F8,
07,
0C,
F4,
00,
00,
01,
FD,
07,
0B,
FC,
06,
FF,
FF,
01,
02,
03,
FF,
FF,
FF,
FE,
FE,
06,
03,
FD,
F5,
F4,
00,
00,
F6,
F9,
F8,
02,
F9,
FC,
FC,
FE,
05,
04,
03,
00,
F8,
F1,
09,
06,
02,
F8,
FF,
03,
FB,
F6,
02,
02,
07,
08,
02,
0A,
04,
01,
FF,
00,
FE,
FA,
F9,
FE,
06,
01,
FD,
03,
04,
08,
04,
FB,
ED,
F4,
00,
FE,
F8,
EF,
01,
FD,
01,
FB,
F5,
01,
0B,
00,
FC,
FF,
F7,
F7,
01,
01,
F7,
FA,
F7,
06,
03,
02,
FA,
FB,
00,
FF,
FF,
02,
FF,
02,
FE,
00,
FE,
FC,
04,
FE,
04,
FA,
FD,
F9,
01,
FF,
FD,
02,
F7,
F9,
05,
FE,
03,
02,
06,
FE,
FC,
04,
01,
FF,
02,
FC,
FA,
FD,
04,
04,
04,
03,
02,
F9,
F9,
FE,
01,
FD,
FF,
FD,
FB,
FD,
F6,
FC,
02,
03,
FA,
04,
FF,
01,
04,
01,
FF,
00,
FF,
03,
06,
FF,
FD,
06,
FF,
00,
04,
FC,
04,
00,
03,
FE,
00,
02,
FD,
01,
FD,
FF,
00,
02,
00,
04,
F8,
02,
FF,
02,
01,
00,
02,
00,
05,
01,
01,
01,
FB,
FB,
FC,
FD,
FF,
FC,
01,
04,
FE,
FD,
F6,
FD,
FD,
FC,
F6,
F8,
FC,
01,
FE,
FF,
03,
FC,
FF,
FE,
01,
F6,
FB,
FE,
FA,
F8,
F9,
FD,
00,
FE,
02,
02,
01,
FE,
FC,
03,
FA,
F8,
FB,
F9,
03,
FA,
FB,
FF,
FD,
FF,
09,
00,
00,
FB,
F9,
00,
FD,
FB,
FB,
03,
FA,
FC,
F9,
FF,
05,
FC,
FF,
FE,
FD,
00,
01,
05,
FA,
00,
06,
01,
FD,
00,
03,
FD,
00,
F8,
FE,
FF,
F9,
05,
FE,
FF,
00,
FC,
00,
01,
01,
00,
FE,
FE,
02,
FD,
F8,
F9,
00,
04,
FB,
00,
F9,
F9,
FF,
FF,
F5,
F9,
FB,
00,
FE,
FB,
FF,
FF,
FB,
FB,
FF,
02,
F7,
F4,
F8,
FC,
FB,
FE,
FE,
FA,
FF,
04,
03,
05,
FD,
01,
02,
07,
FD,
FC,
FB,
FC,
FC,
00,
FF,
FD,
FE,
FD,
FE,
FE,
FA,
00,
FE,
00,
FC,
FB,
03,
FF,
FE,
FF,
FF,
FE,
FA,
01,
F8,
F1,
00,
00,
FC,
FE,
06,
FE,
01,
10,
F4,
FE,
EC,
03,
01,
03,
07,
0E,
FD,
F9,
FD,
0E,
0A,
00,
F2,
F9,
03,
01,
FA,
F6,
03,
FF,
01,
FF,
F8,
FD,
03,
05,
FB,
03,
03,
00,
07,
02,
FD,
0C,
00,
FE,
01,
03,
04,
03,
05,
F5,
FF,
FD,
FE,
F4,
06,
0A,
05,
02,
03,
00,
F7,
00,
00,
05,
F8,
E9,
FE,
08,
FE,
04,
03,
FD,
F5,
05,
03,
05,
FF,
FE,
04,
04,
04,
FB,
F9,
FC,
07,
FB,
F9,
00,
03,
07,
0B,
07,
08,
07,
05,
01,
F6,
06,
05,
04,
F9,
F6,
FC,
02,
04,
FD,
FA,
05,
FC,
02,
FF,
05,
FB,
F8,
FA,
03,
02,
00,
00,
FF,
02,
0B,
FC,
05,
00,
00,
FD,
FC,
09,
07,
05,
06,
0B,
12,
06,
03,
FC,
FB,
06,
03,
0B,
08,
02,
FB,
FD,
F7,
01,
05,
FF,
FD,
02,
01,
05,
06,
F7,
FF,
03,
01,
FE,
FF,
03,
01,
FC,
FF,
01,
03,
FD,
06,
01,
FA,
0B,
FF,
03,
03,
FE,
00,
F9,
02,
FE,
FF,
FC,
F6,
03,
01,
FE,
FF,
07,
FB,
F3,
02,
01,
FC,
F6,
00,
08,
03,
04,
FC,
FE,
04,
09,
FF,
02,
FD,
FB,
F7,
08,
09,
04,
FF,
FD,
FD,
00,
06,
00,
FB,
07,
FB,
FF,
FC,
00,
00,
FF,
FC,
F0,
F4,
06,
06,
FA,
F7,
03,
03,
03,
0F,
0A,
04,
08,
FA,
08,
FF,
01,
00,
F5,
FE,
FA,
FD,
F9,
01,
F3,
FF,
0E,
0C,
02,
FC,
04,
07,
02,
FE,
FE,
05,
08,
FF,
FB,
05,
04,
04,
FA,
04,
06,
FA,
F8,
04,
FF,
05,
04,
04,
FF,
FB,
10,
11,
02,
EE,
F5,
FD,
00,
FB,
FF,
FA,
03,
FF,
00,
FE,
03,
FB,
0A,
03,
03,
02,
F4,
01,
FC,
FE,
FF,
07,
FF,
FA,
F7,
FE,
01,
FD,
FA,
07,
FF,
FF,
01,
05,
00,
FC,
00,
FE,
02,
FD,
FC,
01,
09,
06,
F9,
FE,
0A,
00,
FF,
FC,
FB,
FD,
FA,
FE,
F8,
F9,
FC,
00,
F7,
00,
F4,
FA,
00,
02,
FD,
09,
02,
05,
00,
FA,
FB,
06,
0F,
05,
FE,
FD,
0C,
02,
F9,
02,
01,
FC,
02,
FC,
F8,
FB,
02,
FE,
09,
08,
00,
FB,
02,
06,
FF,
FD,
FD,
F9,
F8,
FF,
0A,
05,
09,
FA,
04,
FD,
04,
08,
13,
09,
06,
0B,
FC,
FF,
03,
08,
03,
FB,
01,
FC,
09,
05,
05,
FA,
07,
FD,
FE,
04,
08,
0B,
08,
FE,
F7,
F6,
FE,
04,
F6,
FD,
FD,
01,
04,
04,
FA,
FF,
F1,
00,
F9,
00,
FE,
FE,
FB,
FC,
03,
00,
FA,
F5,
F7,
FF,
FE,
FD,
08,
FD,
FD,
03,
FF,
04,
FF,
01,
03,
05,
02,
FB,
03,
03,
09,
06,
FC,
FA,
F9,
00,
FE,
01,
04,
F7,
07,
06,
01,
00,
F9,
F8,
00,
03,
F8,
02,
FE,
FE,
FA,
FE,
07,
FF,
0C,
05,
FA,
F9,
08,
04,
03,
02,
FC,
FE,
04,
FF,
F0,
FF,
02,
04,
F5,
FC,
FE,
02,
FA,
FD,
FB,
00,
FD,
F9,
00,
06,
02,
01,
04,
FE,
F7,
F9,
F7,
FC,
F3,
03,
FB,
FB,
11,
06,
FE,
00,
04,
FB,
FC,
FF,
FA,
FE,
FD,
0A,
FB,
F8,
FD,
03,
06,
04,
00,
05,
06,
04,
F9,
F9,
06,
00,
01,
03,
09,
02,
FF,
F5,
02,
FD,
08,
FE,
03,
04,
FF,
03,
00,
00,
02,
0A,
05,
07,
06,
01,
FB,
05,
FD,
FA,
00,
00,
00,
08,
FA,
F3,
02,
00,
04,
0C,
0B,
00,
F9,
F8,
02,
FA,
FD,
06,
03,
02,
00,
03,
FC,
02,
FE,
FE,
04,
06,
04,
00,
02,
05,
FC,
00,
02,
05,
FE,
FE,
07,
07,
01,
FF,
02,
FE,
06,
06,
FE,
06,
06,
06,
FF,
FD,
04,
FD,
FC,
06,
FE,
FD,
FB,
00,
05,
04,
08,
07,
0A,
05,
FD,
F7,
04,
04,
05,
02,
F3,
F8,
02,
F8,
FF,
02,
03,
00,
02,
00,
04,
03,
06,
08,
02,
09,
01,
02,
00,
FF,
02,
F5,
F6,
F7,
06,
04,
04,
01,
0A,
02,
F9,
01,
F8,
FD,
00,
04,
08,
03,
FE,
FC,
00,
FB,
FF,
F7,
02,
00,
00,
02,
07,
02,
04,
03,
FF,
FF,
05,
0C,
00,
FE,
01,
04,
00,
FE,
FE,
00,
05,
FC,
F7,
01,
01,
04,
FE,
04,
01,
03,
02,
FA,
FD,
FF,
FA,
F8,
F9,
FD,
F9,
02,
FB,
00,
FF,
01,
00,
07,
F8,
01,
FE,
02,
08,
03,
02,
F6,
02,
FB,
06,
FD,
F8,
FA,
02,
FD,
FE,
00,
0A,
FD,
03,
FF,
FE,
03,
07,
02,
FE,
FB,
FD,
01,
FB,
FB,
F8,
05,
05,
00,
F1,
FB,
02,
02,
F5,
F1,
FF,
FB,
FE,
03,
FD,
03,
F4,
F3,
00,
FC,
FE,
FE,
06,
03,
06,
07,
FC,
FA,
07,
0D,
01,
01,
01,
FB,
02,
F9,
FC,
F9,
03,
FE,
04,
E8,
FA,
FF,
FD,
05,
03,
08,
06,
00,
01,
00,
06,
07,
07,
0C,
03,
FD,
FA,
FE,
04,
FA,
05,
FC,
0B,
0D,
04,
06,
0D,
07,
F9,
01,
01,
FC,
FA,
FA,
04,
FF,
03,
FC,
FF,
01,
07,
05,
03,
04,
05,
F8,
F8,
FD,
01,
04,
FA,
00,
03,
FE,
F6,
06,
06,
01,
FD,
F5,
FB,
03,
02,
FD,
F6,
FE,
00,
01,
F6,
FF,
09,
04,
02,
04,
05,
0D,
FD,
F9,
01,
07,
01,
07,
07,
05,
06,
01,
F5,
F8,
FF,
F6,
FC,
F5,
01,
F3,
F7,
F3,
FB,
FC,
FC,
04,
04,
FC,
F8,
EC,
07,
FB,
F6,
FB,
00,
FB,
03,
FD,
FD,
F8,
F7,
FC,
FD,
F8,
01,
04,
FC,
FD,
06,
03,
05,
03,
FD,
00,
F1,
FB,
01,
06,
FD,
00,
09,
FE,
0B,
07,
01,
05,
00,
03,
FD,
FE,
FB,
03,
03,
FD,
02,
FE,
04,
02,
04,
F7,
F1,
FD,
00,
F2,
F9,
FC,
08,
01,
04,
0B,
FC,
F4,
F0,
F3,
07,
00,
EF,
F7,
FE,
F6,
F4,
FA,
00,
F9,
FE,
00,
02,
05,
0C,
0A,
06,
07,
06,
0C,
04,
07,
05,
FE,
F5,
01,
01,
01,
F8,
FE,
01,
08,
FE,
0A,
06,
04,
FE,
09,
01,
00,
01,
FC,
03,
01,
07,
FC,
09,
02,
06,
09,
00,
01,
03,
0A,
FE,
01,
00,
FA,
FE,
FD,
FE,
FF,
FD,
FD,
02,
FD,
02,
FB,
FA,
00,
06,
01,
F9,
FA,
FF,
08,
02,
FB,
01,
FD,
FD,
FF,
F4,
01,
03,
01,
FD,
FC,
04,
F8,
FD,
FF,
FD,
FA,
FF,
FF,
FF,
FB,
02,
00,
FC,
00,
FF,
01,
04,
04,
01,
01,
FD,
07,
FC,
01,
FA,
06,
FF,
09,
FC,
FE,
02,
FE,
01,
FD,
00,
FA,
06,
01,
04,
01,
FC,
FA,
03,
FE,
FE,
F8,
FF,
02,
F7,
FE,
FD,
FC,
00,
07,
05,
FC,
FC,
FA,
FC,
FB,
02,
03,
FF,
FE,
FC,
05,
FD,
FC,
FD,
01,
FC,
FD,
FF,
FF,
FE,
F8,
01,
00,
09,
FC,
FD,
FB,
00,
03,
FD,
FC,
FF,
F9,
05,
01,
FD,
FE,
02,
03,
FA,
00,
F6,
FA,
FE,
FE,
03,
FF,
00,
FA,
01,
FC,
FD,
FF,
00,
06,
05,
FA,
07,
02,
08,
04,
01,
FE,
FF,
06,
00,
F7,
00,
01,
FC,
02,
FD,
02,
05,
FB,
00,
03,
FF,
FD,
FF,
02,
FF,
FF,
FC,
00,
FA,
FC,
03,
FE,
03,
FB,
FA,
FF,
01,
FD,
01,
FF,
F9,
FF,
F9,
01,
08,
FE,
00,
F9,
02,
FE,
FD,
FB,
04,
01,
FD,
FD,
08,
07,
01,
FE,
04,
07,
FF,
02,
F7,
F5,
01,
F8,
FB,
FD,
FA,
FA,
F8,
FE,
FA,
FF,
FE,
F9,
03,
FF,
07,
02,
03,
FF,
03,
FD,
01,
FF,
FA,
FB,
F9,
04,
05,
FF,
03,
FE,
03,
0C,
03,
05,
FB,
FF,
FD,
00,
0B,
04,
00,
FF,
03,
04,
FB,
FC,
FD,
04,
FA,
F1,
00,
02,
FA,
01,
F5,
02,
FF,
F9,
0C,
0A,
03,
FC,
03,
FC,
00,
00,
03,
FD,
F9,
FD,
FC,
FA,
F5,
00,
FF,
FF,
02,
01,
F8,
F5,
FA,
FD,
FB,
FE,
02,
00,
F9,
07,
FB,
FF,
02,
FD,
06,
03,
FF,
01,
03,
00,
FE,
02,
03,
08,
01,
F8,
07,
0A,
FB,
F4,
03,
03,
FE,
F9,
04,
01,
00,
03,
FF,
03,
FE,
01,
FC,
08,
01,
FF,
FB,
0C,
FF,
FF,
01,
02,
F6,
FF,
06,
FA,
FF,
01,
FB,
FC,
07,
02,
FE,
FA,
03,
FD,
06,
06,
FB,
FF,
03,
06,
FD,
FE,
FF,
FD,
04,
03,
FE,
FE,
0B,
01,
00,
FA,
03,
02,
00,
F5,
07,
06,
01,
FC,
07,
09,
01,
FC,
FE,
00,
01,
07,
F5,
01,
FE,
FE,
03,
04,
02,
F9,
07,
06,
FD,
F9,
03,
FA,
F8,
05,
05,
FF,
FF,
09,
FF,
04,
02,
07,
00,
F7,
04,
03,
FF,
FD,
02,
01,
01,
FF,
00,
FB,
FB,
FC,
F5,
FE,
FC,
FD,
02,
07,
06,
01,
09,
0D,
FA,
FB,
02,
0F,
FE,
FD,
FF,
00,
02,
06,
FE,
FC,
FF,
FA,
00,
08,
FB,
FA,
06,
01,
08,
05,
04,
FA,
04,
FE,
FC,
00,
FD,
02,
FC,
FB,
F6,
FC,
FE,
FA,
FA,
F3,
FE,
01,
08,
00,
08,
03,
F9,
FC,
FB,
05,
00,
FE,
FC,
05,
04,
FA,
F9,
03,
FC,
F5,
00,
08,
FA,
F2,
F6,
07,
FA,
04,
06,
FD,
05,
01,
09,
06,
02,
FD,
FD,
07,
07,
05,
01,
00,
FF,
FE,
FF,
05,
FC,
03,
05,
07,
F9,
FD,
0B,
05,
04,
02,
05,
00,
00,
0A,
FF,
0B,
FC,
04,
FE,
FD,
00,
00,
01,
03,
FD,
FA,
F9,
03,
04,
FB,
FF,
02,
08,
03,
02,
FE,
04,
FD,
FA,
04,
03,
FC,
F5,
F7,
04,
05,
FF,
01,
05,
01,
F7,
01,
04,
02,
FB,
0C,
FF,
FC,
01,
FE,
FC,
FF,
F8,
F8,
FB,
02,
FF,
FD,
03,
07,
FE,
01,
FE,
F4,
02,
06,
F1,
F8,
06,
02,
FE,
FD,
F8,
FA,
01,
03,
03,
FD,
05,
06,
01,
00,
06,
01,
08,
02,
FF,
03,
FF,
F7,
00,
FD,
FD,
FF,
FF,
07,
07,
02,
FE,
FF,
F9,
F9,
05,
FE,
F8,
F4,
FD,
FF,
03,
FA,
03,
FD,
06,
FD,
01,
04,
03,
04,
FA,
FD,
FA,
F6,
00,
03,
F9,
F8,
F5,
F3,
F3,
FC,
FE,
00,
03,
00,
03,
01,
00,
01,
FF,
FB,
FE,
FE,
04,
03,
FC,
00,
FF,
FD,
01,
07,
FF,
04,
03,
00,
06,
FC,
F9,
FC,
FB,
00,
03,
02,
05,
FD,
F8,
FE,
00,
03,
FF,
FF,
01,
FE,
F4,
F8,
FF,
09,
07,
00,
07,
06,
00,
02,
FD,
00,
00,
FE,
01,
04,
01,
F4,
F7,
F6,
02,
FE,
F9,
09,
FD,
FE,
F7,
F5,
F5,
FC,
F9,
FB,
FC,
02,
F6,
FC,
FE,
FA,
02,
FC,
FB,
01,
00,
02,
04,
05,
03,
F5,
FA,
FD,
05,
08,
02,
FA,
02,
FD,
0A,
FE,
05,
FF,
05,
02,
F8,
05,
04,
06,
EC,
F7,
01,
FD,
FF,
00,
F9,
FA,
F7,
F8,
FA,
06,
F6,
05,
FA,
02,
F7,
FD,
02,
01,
FE,
FC,
00,
FE,
FD,
FE,
FD,
F1,
FF,
00,
FD,
F4,
FC,
FE,
FE,
08,
F4,
F9,
FD,
04,
F7,
00,
06,
09,
0E,
0A,
FB,
FD,
00,
02,
07,
FE,
00,
09,
0A,
FE,
00,
07,
0C,
02,
01,
04,
09,
FC,
F8,
FC,
FD,
03,
FE,
F9,
FF,
01,
00,
F8,
FA,
FD,
FC,
FE,
FF,
F7,
FF,
04,
02,
07,
07,
0B,
03,
06,
FA,
FD,
FF,
00,
F9,
F6,
FD,
FD,
01,
FD,
FD,
0C,
FF,
FE,
FD,
00,
F6,
FD,
02,
01,
03,
FB,
FF,
F9,
FD,
03,
FE,
0A,
F7,
FA,
07,
00,
03,
FA,
FE,
00,
06,
00,
03,
FD,
FC,
FF,
01,
0F,
F2,
FB,
01,
03,
F6,
F8,
FB,
FF,
00,
F5,
FE,
FA,
F4,
06,
01,
FB,
F7,
F3,
0B,
01,
F8,
FB,
03,
05,
02,
09,
FE,
00,
F8,
00,
FF,
06,
FF,
FC,
F9,
03,
F3,
FD,
FC,
FC,
00,
08,
02,
FA,
F8,
FD,
01,
04,
08,
08,
05,
07,
04,
FE,
FA,
00,
F8,
FC,
FA,
FB,
00,
08,
03,
03,
F4,
09,
00,
F0,
FD,
FC,
00,
FA,
00,
FB,
F8,
FC,
FE,
06,
02,
01,
FD,
0B,
04,
07,
F9,
0B,
03,
02,
05,
04,
FB,
FC,
FA,
00,
08,
FE,
F8,
F9,
07,
FF,
02,
03,
FD,
03,
03,
0B,
04,
FE,
FC,
EF,
06,
01,
03,
FC,
01,
08,
0A,
03,
FA,
FE,
06,
FC,
02,
FC,
03,
06,
09,
0A,
F6,
F8,
FC,
F8,
FA,
FB,
FB,
F5,
FF,
04,
08,
02,
FC,
05,
02,
06,
F9,
FE,
02,
03,
F6,
FA,
08,
FE,
02,
FF,
02,
FA,
02,
07,
02,
FB,
05,
04,
0A,
F8,
01,
FD,
05,
02,
FB,
03,
08,
FE,
02,
FA,
F4,
F9,
00,
02,
02,
02,
02,
FB,
05,
02,
F9,
FE,
04,
05,
FF,
FF,
03,
FD,
05,
00,
05,
00,
07,
06,
00,
FB,
02,
F3,
FD,
00,
00,
FB,
F8,
FB,
F6,
F8,
06,
01,
04,
0C,
02,
00,
04,
06,
FF,
FA,
F6,
04,
FE,
02,
FD,
07,
05,
FD,
FD,
FC,
04,
0A,
06,
FC,
03,
FB,
FC,
06,
01,
04,
F9,
FA,
04,
06,
F8,
F8,
FC,
02,
02,
F9,
F1,
EF,
F8,
F9,
FD,
FB,
F6,
01,
03,
F8,
FB,
05,
F9,
F5,
0A,
06,
FC,
F4,
FA,
F5,
FC,
F3,
0A,
03,
00,
FD,
03,
03,
02,
01,
FF,
F8,
06,
FC,
00,
02,
FF,
01,
00,
FF,
00,
FF,
FD,
FB,
05,
04,
FA,
FF,
05,
01,
FA,
01,
07,
07,
F9,
01,
07,
03,
00,
FB,
F5,
F1,
02,
FF,
F8,
FF,
F3,
FE,
03,
06,
FA,
03,
03,
FD,
08,
03,
FD,
FD,
FE,
F6,
F4,
FC,
00,
FF,
FC,
F5,
02,
FC,
07,
06,
00,
01,
0E,
07,
06,
04,
FD,
F9,
FD,
06,
02,
FB,
06,
03,
02,
FC,
FF,
03,
03,
FF,
EF,
FF,
03,
02,
FA,
00,
FE,
FE,
FB,
FD,
04,
01,
FC,
00,
FF,
03,
FC,
FB,
03,
02,
00,
FE,
02,
FF,
00,
FE,
01,
FE,
03,
FB,
FD,
00,
FB,
FE,
FD,
FF,
FF,
FC,
02,
FC,
04,
FF,
FD,
FF,
00,
FD,
01,
FB,
FC,
FA,
FF,
FE,
02,
FF,
02,
FE,
00,
FC,
03,
FF,
FC,
01,
FE,
FC,
FF,
FE,
01,
03,
FC,
F8,
02,
FF,
01,
FC,
01,
02,
FD,
03,
FF,
FF,
01,
FF,
00,
FD,
01,
FF,
FD,
00,
FD,
01,
FF,
FE,
FE,
FD,
00,
02,
02,
02,
03,
01,
FD,
FD,
00,
FE,
FB,
FD,
FD,
FA,
FD,
00,
01,
01,
FA,
F8,
F9,
FD,
FF,
00,
FA,
02,
FF,
FB,
FA,
FE,
FE,
03,
FE,
FE,
01,
FD,
FF,
FE,
FD,
FA,
FB,
FF,
00,
FD,
02,
01,
FD,
00,
FC,
FD,
FF,
FD,
01,
FD,
04,
FC,
FC,
01,
05,
02,
FD,
FF,
02,
03,
02,
FA,
FD,
FF,
02,
FD,
FE,
FC,
02,
FE,
03,
FF,
FC,
FE,
FD,
FB,
01,
FC,
FD,
FF,
FD,
01,
FD,
00,
FD,
00,
00,
02,
FE,
FE,
FC,
FB,
00,
F9,
00,
02,
FB,
01,
FF,
00,
01,
FD,
02,
FB,
00,
FF,
01,
FC,
00,
FA,
F9,
00,
FE,
FA,
FF,
02,
FD,
FB,
05,
FE,
03,
02,
FE,
FB,
00,
FC,
FB,
FD,
FE,
FD,
FC,
FC,
FC,
FC,
FE,
FE,
FF,
FC,
04,
02,
00,
00,
FA,
FC,
FF,
FE,
01,
FD,
FD,
FA,
FA,
02,
FA,
02,
00,
03,
FD,
FC,
01,
FB,
FE,
03,
F4,
FE,
05,
05,
FE,
01,
03,
03,
05,
06,
01,
FE,
08,
05,
FF,
FD,
FC,
FE,
0A,
04,
04,
03,
FD,
FA,
FA,
FF,
F7,
02,
04,
08,
04,
06,
02,
05,
06,
F8,
FF,
FF,
02,
05,
02,
02,
05,
FF,
FE,
FA,
01,
03,
00,
03,
02,
F1,
04,
03,
04,
F8,
04,
F8,
06,
FD,
FE,
F9,
FD,
FB,
0B,
F9,
F5,
F5,
03,
F5,
F8,
F5,
FB,
FF,
02,
FC,
FB,
F9,
EA,
FC,
FD,
FF,
FE,
02,
06,
00,
FC,
F9,
05,
FF,
FD,
FC,
0B,
07,
07,
FE,
FE,
05,
FA,
FF,
04,
09,
00,
FD,
FE,
07,
FD,
00,
06,
08,
04,
02,
FA,
FD,
FF,
FC,
FC,
FF,
FE,
FC,
01,
05,
05,
03,
04,
01,
FF,
03,
FD,
01,
00,
04,
05,
04,
07,
0C,
00,
03,
FE,
06,
03,
02,
FE,
08,
FA,
05,
03,
08,
FB,
00,
F6,
F6,
FB,
05,
06,
03,
FB,
01,
FF,
02,
FD,
01,
FE,
FB,
01,
FB,
FF,
F7,
FF,
FD,
FA,
04,
01,
08,
FD,
FD,
01,
07,
01,
F9,
FF,
01,
FB,
F4,
01,
FE,
02,
FF,
00,
FA,
01,
00,
FE,
FB,
FE,
07,
03,
01,
04,
0A,
04,
FD,
00,
FF,
01,
FE,
FE,
07,
F9,
FF,
03,
04,
05,
FD,
01,
FD,
02,
01,
06,
07,
03,
0A,
07,
02,
FD,
04,
FB,
F1,
FF,
F8,
02,
01,
03,
02,
04,
FA,
FD,
FA,
FA,
00,
FC,
03,
FF,
F9,
02,
F9,
F6,
00,
FC,
FC,
F7,
03,
FD,
FD,
F5,
FE,
06,
05,
FA,
FB,
05,
FF,
FD,
FC,
F7,
04,
FE,
05,
FB,
FD,
02,
00,
F9,
FE,
FE,
02,
F0,
00,
09,
04,
07,
FE,
02,
FA,
01,
FD,
F6,
FC,
F1,
F9,
F8,
00,
00,
02,
09,
08,
05,
F9,
07,
08,
03,
FC,
02,
01,
FA,
03,
08,
0A,
05,
00,
FF,
FC,
08,
FF,
F9,
F5,
05,
01,
F9,
00,
04,
04,
02,
FD,
04,
03,
FC,
F5,
FD,
FE,
FD,
FE,
02,
04,
F8,
01,
00,
03,
04,
05,
FE,
02,
01,
01,
05,
FE,
02,
FE,
03,
FC,
F9,
FC,
F0,
F4,
01,
F9,
F5,
F9,
FD,
02,
FE,
03,
0B,
03,
05,
00,
04,
02,
02,
F9,
FC,
02,
FC,
05,
FB,
00,
01,
FC,
F9,
03,
FB,
00,
06,
08,
FA,
FB,
00,
02,
01,
FB,
FF,
07,
F2,
F6,
02,
08,
FB,
FC,
FB,
FC,
EF,
EF,
F9,
FE,
01,
04,
04,
01,
04,
05,
FF,
FC,
00,
01,
00,
05,
03,
03,
01,
06,
FE,
00,
F8,
01,
FB,
FC,
FA,
00,
F8,
FD,
FB,
07,
FA,
01,
FD,
05,
05,
04,
03,
03,
02,
FD,
00,
02,
00,
02,
02,
01,
FC,
F0,
EE,
F7,
F3,
FB,
FB,
FC,
02,
02,
FD,
0A,
05,
07,
FF,
02,
F9,
F4,
F6,
F0,
06,
05,
FF,
FF,
04,
05,
FF,
05,
07,
FF,
04,
02,
FB,
02,
02,
06,
FA,
F7,
FA,
F8,
01,
F4,
05,
F9,
02,
03,
07,
03,
0A,
03,
0A,
03,
F6,
03,
FE,
FF,
02,
01,
00,
00,
02,
06,
01,
04,
02,
05,
02,
01,
FE,
F7,
F9,
FD,
03,
FF,
FB,
FA,
05,
06,
FD,
F6,
FE,
F8,
F7,
FA,
FC,
04,
07,
FE,
FD,
01,
00,
F9,
FE,
05,
05,
02,
F4,
F7,
FC,
02,
FB,
00,
07,
FC,
05,
02,
05,
09,
00,
FD,
FD,
FF,
03,
01,
04,
0D,
02,
FE,
02,
06,
04,
F9,
01,
00,
FE,
02,
FE,
03,
FF,
08,
09,
0F,
02,
00,
00,
F9,
00,
00,
FF,
FF,
01,
02,
F8,
FE,
07,
0A,
02,
FE,
FF,
02,
04,
04,
00,
04,
FB,
FE,
00,
01,
F6,
F7,
04,
03,
F8,
F2,
FC,
FC,
FC,
F8,
02,
02,
07,
08,
07,
08,
05,
FD,
FE,
FA,
FC,
FE,
FD,
00,
F8,
FF,
FF,
01,
03,
06,
FF,
06,
02,
06,
FA,
FA,
FD,
02,
FF,
FD,
03,
0C,
FD,
08,
04,
03,
F7,
FB,
FE,
F7,
FE,
F9,
F6,
FA,
F9,
FD,
00,
FF,
07,
05,
07,
04,
03,
00,
01,
FB,
04,
0A,
09,
01,
FC,
00,
F6,
FE,
03,
FD,
FD,
FD,
05,
02,
F6,
02,
FB,
FB,
F8,
02,
FE,
01,
04,
02,
03,
03,
02,
05,
FE,
07,
0B,
05,
01,
F4,
E9,
F0,
00,
FF,
00,
FC,
FD,
00,
00,
04,
FF,
05,
07,
FE,
F9,
FD,
F8,
F2,
01,
FF,
03,
FD,
FE,
FD,
FF,
00,
06,
FF,
FF,
F7,
0C,
05,
04,
0A,
02,
FE,
01,
FD,
05,
02,
0C,
05,
04,
05,
04,
FF,
08,
01,
05,
04,
03,
FF,
FC,
FE,
FF,
FF,
F9,
00,
06,
03,
FD,
03,
03,
02,
FC,
FC,
03,
02,
00,
FD,
02,
FA,
FC,
FF,
00,
FB,
00,
00,
FE,
FB,
FC,
FE,
01,
01,
FD,
02,
00,
FC,
FA,
02,
FF,
FE,
FD,
02,
FE,
FC,
01,
FD,
00,
FB,
FE,
FD,
00,
FF,
00,
FD,
FC,
03,
FD,
FF,
FD,
00,
00,
FE,
FF,
00,
00,
03,
FD,
01,
03,
FD,
FD,
01,
FE,
FE,
FC,
02,
FF,
00,
FE,
01,
00,
FE,
01,
FE,
00,
FB,
FE,
FD,
01,
FD,
01,
FF,
01,
FC,
FC,
FE,
FD,
FD,
03,
02,
FE,
01,
FD,
FC,
01,
00,
FE,
FD,
00,
03,
02,
02,
FD,
02,
FF,
FB,
FE,
FB,
01,
FD,
FD,
00,
02,
02,
FD,
01,
00,
FC,
FE,
FF,
FB,
FB,
FC,
03,
FF,
00,
FC,
FF,
01,
00,
FE,
FE,
01,
FC,
FB,
FB,
01,
FD,
FE,
FE,
00,
FE,
FF,
FD,
02,
FE,
02,
02,
FB,
FD,
FF,
FD,
00,
FE,
02,
FF,
FD,
FE,
FC,
FD,
01,
01,
FE,
FF,
02,
00,
00,
FC,
02,
FD,
00,
FF,
00,
FB,
00,
FD,
03,
FE,
00,
FF,
FD,
FE,
02,
FC,
FD,
02,
02,
01,
FC,
FF,
FC,
FC,
FE,
FD,
00,
FF,
FF,
00,
01,
FC,
FF,
01,
FF,
01,
FE,
FF,
FB,
FA,
FD,
02,
FD,
00,
01,
00,
FD,
01,
01,
00,
FE,
01,
00,
FE,
01,
FD,
FF,
FC,
FB,
02,
01,
FD,
FD,
FE,
FE,
FE,
03,
03,
02,
FE,
FE,
FF,
FD,
03,
FD,
03,
FF,
02,
01,
FF,
03,
FF,
01,
FF,
FC,
FD,
FD,
02,
05,
10,
04,
E9,
07,
02,
FC,
FE,
04,
01,
09,
01,
FC,
FE,
FC,
03,
F5,
08,
04,
09,
F9,
FD,
FC,
0A,
0B,
06,
01,
06,
07,
01,
00,
FF,
FE,
FE,
04,
09,
01,
FE,
05,
05,
01,
FF,
01,
FF,
F7,
FE,
05,
04,
FC,
F8,
F8,
FA,
FF,
04,
FD,
FB,
04,
FF,
FB,
F5,
00,
08,
09,
01,
02,
FE,
F6,
F0,
04,
FC,
05,
02,
FB,
02,
FE,
FC,
FB,
FE,
01,
07,
FE,
00,
F9,
FD,
FA,
03,
F9,
FD,
F9,
FF,
F8,
FE,
FB,
FE,
03,
FC,
FF,
06,
06,
08,
06,
08,
07,
05,
0A,
FD,
FB,
FD,
03,
FC,
FD,
FF,
FD,
01,
03,
FD,
F9,
02,
0A,
00,
FD,
05,
FC,
FD,
00,
01,
FB,
07,
02,
01,
01,
01,
06,
06,
06,
07,
0C,
08,
07,
03,
0B,
02,
03,
09,
FF,
05,
08,
10,
05,
02,
00,
06,
03,
FD,
FF,
FF,
FF,
01,
00,
FC,
F9,
00,
01,
FA,
FF,
02,
01,
01,
FD,
FF,
FC,
00,
FB,
FB,
FD,
FA,
00,
00,
FD,
04,
FF,
FD,
F9,
F9,
02,
00,
F5,
F6,
FF,
05,
01,
07,
06,
FC,
F0,
04,
03,
04,
07,
03,
04,
FF,
07,
0A,
00,
03,
01,
F2,
FB,
FC,
05,
02,
07,
FC,
03,
08,
01,
02,
05,
00,
03,
FC,
FB,
F3,
ED,
F9,
F7,
FA,
FA,
07,
F7,
00,
08,
03,
FA,
FF,
05,
05,
07,
0A,
FD,
05,
01,
F6,
01,
02,
FD,
F9,
FC,
00,
FD,
FE,
03,
FA,
F7,
FF,
05,
04,
FF,
FA,
F8,
F6,
FF,
05,
FB,
00,
05,
03,
F4,
04,
03,
04,
FE,
F3,
F9,
05,
F9,
F8,
01,
FB,
01,
F7,
FB,
FD,
04,
FE,
FB,
01,
F2,
F2,
FE,
FE,
FD,
04,
05,
00,
06,
02,
01,
00,
03,
00,
FD,
FE,
06,
06,
04,
0B,
00,
00,
08,
01,
04,
FC,
FF,
FC,
05,
08,
FD,
03,
FD,
09,
09,
05,
FB,
02,
01,
F8,
04,
05,
FF,
01,
00,
01,
FF,
FE,
0A,
04,
03,
FD,
02,
01,
06,
FF,
00,
FD,
03,
FF,
FC,
FD,
04,
FD,
FB,
F3,
F8,
F7,
04,
02,
05,
02,
FE,
FC,
08,
02,
00,
FF,
FD,
01,
FF,
FA,
EF,
04,
00,
FA,
FF,
01,
FC,
FE,
04,
04,
FD,
00,
04,
FF,
FA,
EF,
F5,
FF,
FC,
FF,
01,
08,
03,
00,
04,
FD,
F7,
F9,
FD,
F3,
F3,
F0,
F3,
F8,
08,
FD,
03,
02,
FD,
F8,
08,
FB,
F4,
FF,
05,
09,
0F,
0C,
0D,
00,
FF,
F6,
FB,
F7,
01,
04,
04,
01,
F3,
03,
03,
FD,
02,
FA,
FC,
FF,
FC,
05,
07,
08,
04,
07,
00,
FD,
00,
01,
FE,
02,
03,
FC,
EE,
F9,
05,
02,
FE,
FE,
03,
06,
03,
01,
00,
03,
06,
02,
02,
03,
FD,
FA,
FD,
07,
01,
04,
FD,
FE,
03,
01,
FF,
00,
02,
06,
04,
F7,
03,
FE,
06,
00,
04,
FD,
02,
07,
05,
04,
FC,
04,
FD,
00,
0B,
04,
06,
05,
FD,
FD,
01,
F9,
FD,
06,
02,
02,
F9,
0A,
FB,
FD,
FB,
E8,
08,
09,
FF,
FA,
F6,
01,
F5,
00,
FD,
04,
F8,
01,
04,
03,
06,
01,
0D,
03,
03,
0A,
00,
FB,
F5,
FA,
03,
FD,
F6,
FA,
FE,
00,
FB,
09,
06,
F7,
F8,
F8,
02,
05,
07,
03,
07,
04,
FF,
07,
FB,
06,
05,
0F,
0D,
F4,
05,
00,
04,
07,
FD,
03,
04,
02,
01,
00,
FE,
F7,
05,
FD,
01,
FF,
FE,
FB,
00,
FF,
06,
F8,
FD,
04,
0A,
02,
08,
F7,
FE,
07,
FC,
02,
02,
03,
FD,
FC,
FE,
03,
FB,
F9,
00,
02,
04,
FE,
01,
02,
F8,
FF,
FE,
FE,
FE,
05,
F8,
F9,
FD,
FE,
09,
FF,
FD,
FF,
FD,
04,
FE,
06,
FC,
FD,
FB,
FE,
00,
05,
01,
04,
0C,
04,
03,
FF,
F5,
F8,
FE,
01,
FF,
09,
05,
0D,
02,
06,
FD,
FF,
E9,
F7,
FD,
04,
FD,
03,
00,
FE,
FB,
FC,
02,
07,
FA,
F8,
F6,
FB,
FD,
00,
FE,
FF,
08,
08,
FF,
09,
06,
00,
FC,
FA,
01,
02,
02,
FF,
03,
05,
02,
01,
0A,
02,
04,
F8,
FC,
00,
02,
00,
FC,
04,
07,
04,
01,
04,
00,
FE,
FA,
FF,
05,
02,
F7,
01,
02,
03,
F7,
FE,
FB,
FC,
00,
00,
FC,
05,
F7,
FA,
F9,
FF,
F5,
F9,
FE,
04,
00,
FB,
FE,
FC,
FD,
04,
05,
0C,
04,
05,
09,
04,
06,
03,
07,
FB,
FB,
01,
03,
F9,
09,
F2,
F2,
03,
0F,
FE,
02,
05,
FE,
01,
00,
FE,
FE,
02,
09,
FC,
03,
0A,
FB,
F8,
07,
EE,
FA,
05,
F9,
04,
05,
FD,
FA,
FD,
04,
FC,
FB,
FD,
01,
FA,
F7,
05,
FC,
FA,
F5,
00,
01,
FB,
F9,
FB,
04,
02,
F8,
08,
0A,
05,
EF,
06,
09,
01,
03,
FF,
00,
FB,
02,
FC,
03,
FB,
04,
F8,
00,
FC,
FE,
02,
05,
03,
FF,
02,
00,
F8,
03,
00,
FC,
02,
03,
FD,
08,
FD,
FF,
00,
FD,
03,
02,
07,
08,
07,
07,
FD,
FC,
0B,
04,
03,
03,
0C,
F9,
FD,
FE,
03,
01,
06,
07,
FB,
06,
0A,
01,
FF,
08,
03,
FC,
01,
F9,
F4,
F6,
FD,
F4,
E9,
F7,
F8,
F4,
F8,
03,
F9,
01,
06,
FD,
F8,
FE,
FC,
02,
FD,
FE,
FC,
04,
03,
FD,
03,
01,
01,
06,
00,
FA,
FE,
FB,
FF,
05,
FC,
03,
FD,
F8,
FA,
FB,
FC,
00,
FF,
F1,
F0,
ED,
ED,
F0,
F9,
FD,
FB,
F5,
F6,
05,
FE,
FB,
03,
01,
F9,
FE,
FE,
FE,
EE,
06,
F9,
00,
FA,
05,
03,
04,
06,
FD,
FA,
FB,
02,
F8,
03,
08,
07,
F6,
FE,
04,
02,
FB,
01,
00,
01,
06,
08,
03,
06,
05,
01,
03,
FC,
F5,
00,
10,
0A,
F5,
FA,
FC,
FD,
04,
FC,
F1,
F7,
FA,
FA,
F6,
FA,
FC,
FE,
00,
05,
FC,
FC,
FF,
F4,
F7,
FB,
F8,
F4,
FE,
03,
F9,
EC,
F2,
FD,
03,
05,
FA,
F9,
FC,
05,
FA,
FA,
07,
02,
02,
FE,
FE,
FE,
FF,
06,
05,
FA,
FE,
05,
FC,
01,
02,
03,
04,
07,
01,
F7,
00,
F9,
FD,
F6,
FB,
FF,
07,
03,
FF,
FE,
00,
FB,
FF,
FB,
FE,
FE,
04,
02,
FC,
03,
05,
02,
03,
FB,
02,
0B,
FE,
F7,
01,
04,
F7,
F8,
04,
05,
FB,
07,
FF,
FD,
02,
FA,
02,
03,
05,
03,
06,
04,
02,
02,
FE,
FD,
01,
0A,
04,
00,
08,
F9,
F9,
09,
04,
FF,
03,
FF,
02,
03,
F9,
FA,
08,
FE,
03,
05,
01,
F8,
FE,
FD,
FF,
01,
FA,
F4,
0B,
0B,
FD,
F9,
01,
04,
FE,
FF,
02,
00,
FD,
00,
FF,
01,
03,
02,
04,
03,
FD,
FD,
F9,
FC,
03,
06,
F5,
FE,
FC,
FE,
F9,
01,
04,
00,
FE,
00,
FF,
04,
FF,
00,
07,
05,
03,
01,
F9,
FE,
06,
F9,
00,
04,
FF,
05,
FF,
FE,
F9,
FC,
02,
00,
04,
FF,
FB,
01,
FE,
00,
F7,
FF,
F4,
F8,
FC,
FE,
FB,
FE,
02,
00,
01,
FF,
00,
06,
03,
FD,
02,
03,
FA,
FB,
FD,
06,
FE,
02,
01,
00,
03,
FC,
FE,
00,
00,
05,
02,
FC,
07,
FB,
02,
00,
03,
07,
00,
FB,
09,
05,
FB,
07,
02,
FF,
09,
07,
07,
03,
00,
F9,
FD,
FF,
01,
05,
03,
00,
FD,
FF,
08,
00,
03,
00,
FC,
00,
07,
0D,
00,
00,
FA,
F7,
0B,
04,
00,
FA,
06,
FD,
01,
06,
FE,
03,
00,
03,
F9,
06,
FF,
02,
02,
03,
F8,
FD,
FD,
02,
FF,
01,
FD,
00,
FE,
FF,
FE,
03,
FC,
03,
FA,
01,
FB,
03,
FC,
FE,
08,
FF,
01,
08,
05,
F9,
02,
04,
07,
FE,
FC,
F6,
FD,
FB,
F4,
F3,
F8,
F4,
05,
FC,
05,
FD,
FD,
04,
F9,
FD,
00,
02,
F1,
01,
05,
01,
08,
07,
01,
00,
FB,
10,
FB,
FA,
03,
05,
00,
FC,
02,
FD,
06,
FD,
01,
F8,
FF,
FE,
02,
FC,
FE,
FF,
02,
08,
03,
05,
FE,
03,
FE,
04,
FB,
05,
03,
05,
FB,
FA,
00,
02,
01,
FE,
FC,
FC,
00,
02,
05,
01,
00,
FA,
07,
05,
F8,
EF,
00,
FE,
03,
07,
FB,
02,
09,
04,
03,
01,
05,
03,
FE,
FC,
04,
FB,
FF,
FC,
03,
FE,
08,
07,
04,
02,
02,
01,
0C,
0F,
FE,
FB,
0A,
0B,
FB,
F9,
FD,
03,
FE,
01,
FE,
02,
03,
03,
01,
06,
FF,
FF,
01,
FD,
03,
FD,
FC,
01,
0A,
FF,
FC,
FE,
02,
FC,
FA,
FF,
EF,
FB,
00,
09,
FF,
07,
FE,
FF,
0F,
04,
FD,
01,
07,
FF,
02,
0F,
F6,
F6,
07,
0F,
FF,
FD,
FB,
01,
02,
F3,
F3,
05,
FF,
FF,
FF,
03,
00,
FD,
02,
01,
F2,
FE,
FF,
03,
FC,
02,
04,
04,
03,
07,
00,
04,
05,
00,
FF,
00,
00,
FF,
00,
EE,
03,
05,
04,
F9,
00,
02,
F8,
00,
FD,
FF,
FF,
0B,
06,
F9,
FD,
F3,
FC,
FB,
FA,
F8,
FE,
FE,
FF,
03,
F9,
F8,
00,
05,
01,
FD,
FB,
07,
03,
00,
09,
08,
05,
0A,
0B,
F9,
09,
FD,
F9,
F6,
F6,
FA,
00,
0A,
F3,
FC,
00,
08,
FB,
FA,
04,
01,
01,
0E,
04,
FA,
FD,
00,
FC,
FF,
FA,
FD,
FD,
FC,
00,
02,
FD,
FD,
00,
FC,
FC,
FC,
FB,
00,
03,
04,
FD,
02,
02,
FE,
FE,
FC,
00,
00,
01,
FC,
FF,
00,
FF,
00,
03,
01,
FD,
FE,
01,
01,
FD,
FD,
FE,
00,
00,
00,
FE,
FE,
02,
FD,
FF,
FD,
FD,
01,
FF,
03,
04,
FB,
FD,
00,
00,
FB,
FE,
FE,
00,
00,
01,
03,
FD,
01,
FD,
FB,
FD,
00,
00,
FB,
FF,
FF,
01,
FC,
FC,
FF,
FD,
FE,
FF,
04,
FD,
FB,
FE,
FE,
00,
01,
FC,
FF,
01,
FF,
01,
03,
03,
00,
FC,
FC,
03,
FE,
03,
02,
FC,
02,
FC,
FD,
02,
03,
02,
02,
00,
02,
FC,
02,
00,
FE,
FD,
01,
FF,
00,
FF,
00,
FE,
FC,
00,
FF,
FD,
01,
FD,
FF,
FC,
FE,
02,
00,
01,
02,
00,
02,
00,
02,
FC,
03,
01,
00,
FC,
02,
02,
FD,
03,
04,
FF,
FE,
FF,
FC,
FC,
FF,
FE,
03,
02,
FE,
FC,
01,
FF,
FD,
04,
02,
FD,
02,
FC,
FC,
01,
01,
FF,
FF,
FB,
00,
00,
FD,
FB,
02,
FD,
00,
02,
FE,
02,
00,
FD,
FD,
FD,
FA,
FE,
00,
FE,
01,
FD,
FF,
03,
02,
02,
FF,
FF,
FE,
01,
02,
01,
FE,
00,
FC,
FC,
FF,
00,
FF,
02,
01,
01,
01,
FF,
00,
FD,
FD,
00,
02,
FE,
02,
03,
FC,
FC,
00,
FF,
00,
FC,
02,
FD,
FE,
FB,
FE,
02,
02,
FC,
01,
FF,
FD,
02,
00,
00,
01,
00,
FB,
02,
01,
FF,
FE,
FE,
11,
01,
F9,
FC,
FF,
FD,
01,
08,
F7,
FD,
FF,
01,
FB,
FA,
01,
FC,
FC,
02,
02,
01,
FF,
03,
02,
08,
05,
00,
F6,
0B,
10,
FE,
F3,
04,
00,
FF,
FF,
03,
FD,
FB,
FD,
FF,
04,
00,
03,
FF,
FE,
02,
05,
FA,
FD,
FA,
03,
FA,
FD,
FD,
FA,
F7,
02,
01,
03,
FF,
03,
0B,
FD,
04,
01,
04,
00,
06,
F5,
FB,
FF,
01,
F9,
07,
05,
FD,
F6,
03,
FC,
01,
02,
08,
02,
FD,
08,
FE,
FB,
FC,
FF,
00,
07,
F6,
FC,
03,
09,
FC,
07,
04,
03,
0A,
09,
01,
01,
0D,
05,
07,
01,
01,
FD,
F9,
FB,
07,
FA,
03,
FB,
FE,
FE,
02,
FF,
FE,
05,
FF,
FB,
01,
FF,
05,
05,
04,
FE,
FD,
F7,
F9,
FA,
03,
FC,
06,
04,
04,
08,
14,
09,
01,
02,
06,
02,
03,
FC,
FF,
FF,
02,
02,
08,
08,
05,
04,
05,
03,
01,
FF,
0A,
08,
03,
FD,
05,
FF,
03,
02,
F5,
F5,
03,
02,
01,
FB,
FD,
04,
02,
02,
FC,
05,
02,
FB,
FB,
FD,
FF,
FF,
F8,
FA,
02,
05,
08,
08,
FE,
FD,
FF,
F5,
01,
FD,
00,
FC,
03,
0A,
03,
FF,
FE,
02,
04,
03,
FD,
FA,
FD,
FD,
01,
FE,
FF,
FB,
FF,
01,
FD,
04,
02,
FC,
FD,
01,
FF,
FB,
FE,
02,
FD,
F9,
03,
F9,
08,
FC,
05,
04,
04,
03,
06,
04,
FF,
00,
FE,
0A,
FE,
00,
00,
02,
F3,
F8,
FE,
00,
FF,
FF,
00,
05,
FC,
03,
08,
08,
03,
05,
00,
00,
00,
FB,
0D,
F9,
0A,
0A,
04,
FF,
0D,
FD,
FB,
EA,
04,
02,
FE,
FF,
00,
03,
01,
0B,
F9,
05,
05,
03,
FE,
FF,
01,
FC,
07,
04,
FC,
05,
05,
0A,
00,
03,
FC,
FE,
FE,
01,
05,
FA,
02,
F0,
F9,
FA,
FC,
0A,
01,
0B,
06,
05,
FD,
FC,
FC,
00,
FC,
FE,
FD,
FF,
00,
FF,
F9,
07,
05,
FC,
F8,
00,
03,
F2,
EE,
F9,
FA,
FF,
FA,
02,
FC,
FD,
FC,
02,
FB,
00,
FE,
FD,
09,
09,
FC,
FC,
02,
FB,
F2,
F5,
F9,
FF,
03,
F9,
FF,
03,
04,
00,
08,
05,
FD,
06,
FF,
00,
00,
0E,
02,
FD,
02,
09,
00,
03,
01,
FB,
01,
06,
03,
00,
00,
00,
03,
FE,
09,
09,
FE,
F9,
01,
04,
FC,
FA,
FB,
01,
03,
0B,
FD,
FF,
FB,
FB,
FB,
FC,
05,
02,
FF,
FE,
05,
06,
00,
05,
FE,
00,
05,
FB,
F4,
FF,
01,
FF,
FB,
FC,
08,
06,
FE,
FF,
0E,
04,
02,
FE,
00,
FF,
FC,
F2,
FE,
FC,
04,
FB,
01,
06,
04,
07,
01,
04,
02,
03,
00,
07,
07,
0E,
FD,
03,
00,
02,
FD,
FF,
FB,
00,
FB,
01,
02,
08,
F9,
00,
03,
06,
F9,
FB,
FE,
04,
00,
FD,
03,
03,
08,
0B,
04,
03,
05,
02,
FF,
F8,
FB,
02,
04,
FB,
02,
00,
01,
FE,
FC,
00,
F7,
FA,
F7,
F6,
F9,
F8,
02,
FC,
FD,
02,
0C,
00,
FC,
FB,
12,
03,
FD,
F8,
03,
03,
FD,
FB,
03,
F8,
FE,
01,
06,
FD,
01,
02,
FC,
03,
FC,
01,
EE,
02,
06,
09,
01,
F9,
05,
F6,
FC,
01,
FC,
FB,
02,
F7,
04,
06,
F1,
F0,
F5,
FF,
EF,
01,
11,
0F,
FD,
00,
01,
FD,
FE,
03,
FC,
F9,
08,
0B,
04,
0B,
03,
00,
09,
04,
FE,
FB,
01,
07,
00,
07,
01,
FF,
05,
0A,
0E,
08,
03,
04,
01,
FD,
02,
04,
FB,
00,
02,
05,
00,
06,
09,
08,
01,
01,
06,
04,
03,
FF,
00,
FC,
FE,
F8,
00,
01,
FC,
F9,
FA,
EC,
01,
F6,
03,
F9,
FA,
09,
02,
FE,
FE,
FC,
03,
07,
03,
03,
F3,
FA,
F2,
FD,
FD,
FD,
00,
FB,
FC,
FC,
00,
08,
FB,
02,
07,
FE,
F5,
F1,
FE,
0A,
F9,
FD,
06,
12,
FA,
FC,
01,
FA,
FB,
F3,
FA,
F9,
FA,
F3,
F0,
FF,
F8,
FE,
01,
FF,
01,
F7,
03,
FE,
F8,
FB,
FF,
FE,
01,
15,
0E,
00,
05,
F8,
FC,
F0,
FD,
FE,
02,
FB,
F8,
FD,
FA,
06,
04,
00,
F9,
FE,
02,
01,
05,
0A,
FE,
FF,
FC,
05,
FA,
06,
03,
06,
F6,
EE,
D8,
F0,
F9,
03,
02,
00,
FE,
04,
FF,
FA,
FF,
03,
07,
F5,
FD,
01,
F5,
F8,
FB,
FF,
FF,
00,
00,
FC,
03,
F7,
00,
01,
04,
01,
0B,
00,
07,
FA,
07,
FB,
02,
0F,
FB,
02,
02,
0D,
00,
0B,
00,
00,
13,
10,
09,
FD,
05,
00,
FF,
F9,
FA,
00,
FF,
01,
F7,
02,
02,
04,
FD,
00,
FD,
01,
FD,
FF,
FE,
FE,
FC,
FE,
02,
01,
FE,
00,
00,
02,
02,
FD,
FE,
02,
00,
FD,
FD,
FD,
FB,
FC,
03,
FF,
02,
FB,
01,
01,
FB,
FE,
00,
FC,
01,
02,
FC,
FD,
02,
FF,
FD,
00,
FC,
01,
FD,
00,
FD,
FE,
FE,
01,
FB,
02,
01,
FC,
02,
02,
FD,
00,
00,
FF,
02,
FE,
FE,
01,
01,
02,
FB,
FE,
FE,
FE,
FE,
FD,
FD,
FD,
FC,
01,
02,
FD,
03,
01,
FC,
01,
FF,
03,
FF,
FE,
02,
FB,
01,
FC,
FE,
FF,
FB,
FD,
FE,
FF,
00,
FC,
02,
00,
00,
00,
FC,
FF,
FB,
03,
FE,
FC,
00,
FC,
FB,
FC,
FE,
01,
FB,
FF,
FE,
FD,
01,
02,
00,
FE,
00,
FD,
FF,
01,
FE,
03,
03,
01,
FF,
FE,
00,
00,
FC,
FC,
FF,
00,
01,
02,
00,
02,
02,
FD,
03,
FD,
FC,
FF,
FD,
00,
00,
00,
FD,
01,
02,
FF,
01,
FD,
01,
FD,
FE,
FE,
FF,
03,
00,
03,
00,
FE,
FE,
FF,
FC,
01,
03,
02,
01,
03,
00,
FF,
FE,
FC,
FD,
FF,
FC,
FD,
01,
FD,
FC,
FD,
01,
00,
FB,
FC,
01,
03,
00,
01,
FF,
01,
01,
FD,
01,
FE,
00,
FC,
FD,
FD,
FE,
03,
FD,
00,
FF,
00,
FE,
FD,
FC,
00,
FC,
FC,
03,
01,
FE,
FD,
03,
FF,
FC,
02,
03,
00,
02,
FC,
FF,
03,
FB,
FB,
FF,
01,
01,
FE,
02,
02,
FB,
FC,
03,
FD,
00,
01,
00,
FD,
FC,
FC,
01,
FE,
FD,
FC,
05,
06,
F8,
F5,
FD,
02,
FE,
FF,
FF,
06,
00,
00,
07,
0C,
02,
04,
FC,
FF,
02,
03,
F3,
F6,
FE,
0A,
03,
07,
07,
03,
05,
02,
FF,
F9,
F3,
F9,
FD,
07,
FF,
04,
0C,
0A,
F6,
01,
F9,
05,
06,
01,
00,
FD,
02,
09,
01,
FE,
FE,
05,
04,
04,
F7,
00,
FC,
FA,
FB,
01,
03,
F9,
07,
FA,
03,
FC,
07,
F6,
02,
F2,
01,
F7,
FD,
FC,
F9,
FD,
06,
FE,
04,
04,
01,
FB,
F9,
FC,
F5,
FC,
00,
FA,
FA,
00,
01,
FA,
01,
F8,
F2,
F8,
FB,
00,
09,
02,
03,
0A,
FE,
06,
FB,
02,
04,
FF,
FC,
F9,
F5,
F9,
FD,
07,
01,
FE,
01,
00,
F8,
03,
07,
06,
F7,
FF,
FC,
FB,
01,
FF,
FC,
FF,
FC,
FD,
03,
01,
FF,
FE,
FB,
F7,
08,
08,
FC,
02,
ED,
F2,
02,
0F,
03,
00,
07,
07,
FC,
04,
FC,
F4,
05,
FB,
FB,
FD,
08,
05,
02,
00,
F7,
00,
FC,
02,
FC,
00,
FF,
05,
FE,
03,
FC,
FD,
FB,
FF,
FC,
04,
02,
09,
05,
0A,
02,
02,
FF,
02,
FF,
00,
FF,
03,
F4,
EF,
F5,
FD,
F9,
FE,
FA,
03,
06,
00,
03,
01,
04,
FF,
FD,
F6,
F6,
FE,
FC,
FE,
00,
02,
01,
FE,
04,
05,
02,
FE,
00,
FD,
FA,
FA,
FF,
00,
FE,
F5,
FD,
01,
04,
FF,
F7,
05,
00,
FB,
03,
04,
FF,
F8,
02,
03,
04,
FE,
04,
02,
02,
03,
FB,
00,
FA,
FD,
F8,
04,
FA,
02,
0F,
0E,
F4,
F9,
09,
0C,
F5,
F8,
01,
06,
05,
02,
FC,
FE,
01,
FE,
F6,
FD,
F8,
00,
F9,
FF,
FA,
03,
06,
00,
FF,
04,
FE,
F9,
02,
FE,
F5,
FA,
FF,
06,
05,
03,
09,
07,
03,
04,
01,
FC,
FC,
FD,
FC,
00,
03,
04,
FF,
0C,
01,
FE,
04,
09,
02,
FC,
03,
F8,
FD,
FD,
FB,
06,
04,
FE,
09,
02,
04,
FD,
0B,
FE,
03,
07,
FE,
FB,
03,
01,
FE,
09,
06,
07,
FA,
FB,
03,
05,
FB,
02,
01,
FE,
05,
02,
F9,
08,
06,
FA,
F6,
02,
00,
FD,
07,
FE,
02,
08,
FB,
00,
03,
02,
FF,
FC,
FD,
00,
FC,
FB,
02,
01,
06,
FF,
F9,
01,
05,
FD,
05,
08,
FD,
FF,
00,
FF,
FF,
FE,
FD,
07,
FE,
05,
02,
04,
F4,
F8,
FC,
F9,
FF,
03,
FE,
04,
F8,
05,
06,
0A,
0D,
00,
01,
06,
FE,
01,
01,
FA,
FD,
FE,
FE,
04,
0B,
0C,
F9,
FF,
00,
06,
FC,
FB,
12,
06,
04,
FD,
F9,
09,
02,
02,
FE,
F8,
F7,
06,
F8,
00,
FD,
05,
04,
FC,
02,
FF,
03,
07,
FC,
01,
04,
F7,
F0,
F9,
09,
01,
FD,
04,
00,
FF,
05,
08,
F8,
FF,
FE,
FB,
0B,
01,
FA,
F9,
06,
06,
05,
02,
FC,
02,
00,
05,
01,
04,
F8,
F9,
07,
01,
00,
04,
08,
F9,
01,
FB,
FF,
FF,
FC,
F9,
F9,
06,
0A,
FF,
0D,
0B,
FC,
02,
08,
01,
FF,
02,
05,
01,
06,
01,
FF,
05,
FE,
00,
FC,
08,
02,
FF,
0E,
05,
05,
04,
FC,
04,
F5,
FC,
FC,
F5,
F9,
02,
03,
FC,
FC,
07,
FC,
FF,
06,
FD,
FF,
03,
01,
F2,
02,
F9,
F7,
05,
04,
02,
FC,
02,
0C,
00,
FD,
F7,
FD,
FF,
F9,
08,
02,
06,
FD,
FD,
03,
FB,
FE,
01,
F5,
F5,
FD,
0A,
F6,
EB,
F7,
FB,
FB,
F7,
05,
0A,
F5,
F9,
02,
01,
FB,
09,
01,
08,
FE,
03,
08,
FC,
F6,
03,
0B,
FB,
01,
FB,
FF,
FD,
02,
FC,
06,
06,
FF,
FE,
FF,
03,
02,
FA,
FD,
08,
06,
01,
F9,
FD,
01,
01,
FD,
03,
FF,
00,
00,
0B,
FC,
FA,
FD,
02,
07,
0A,
FB,
FF,
0A,
FD,
FF,
F5,
FA,
00,
FC,
01,
F8,
FE,
06,
FA,
09,
08,
05,
02,
07,
FF,
04,
08,
00,
01,
06,
03,
FB,
F9,
F9,
EC,
08,
04,
FF,
FA,
F6,
00,
FF,
FF,
01,
02,
09,
02,
04,
FF,
F8,
E8,
F1,
F6,
FF,
00,
05,
04,
FC,
00,
0E,
00,
FA,
FF,
01,
FE,
FC,
07,
04,
00,
F9,
FF,
FD,
FD,
01,
02,
F2,
FB,
F9,
01,
FD,
F7,
FC,
04,
FC,
F7,
FD,
03,
02,
06,
04,
00,
02,
FF,
04,
F9,
FE,
02,
F7,
F8,
FE,
07,
FD,
02,
06,
04,
02,
00,
FC,
FF,
F8,
F9,
F4,
F7,
FB,
02,
09,
F9,
02,
F5,
04,
0A,
02,
FF,
04,
FB,
FE,
09,
FD,
FE,
FE,
FF,
FE,
FB,
F9,
FD,
07,
01,
01,
FB,
FF,
05,
02,
00,
F8,
FE,
FD,
0A,
FA,
06,
FB,
00,
01,
04,
05,
FD,
07,
FB,
0A,
03,
02,
02,
FF,
00,
07,
02,
01,
03,
0B,
03,
01,
05,
0D,
02,
08,
0A,
FE,
01,
03,
F9,
06,
01,
FB,
F8,
03,
02,
04,
0E,
FE,
04,
06,
01,
FB,
02,
01,
0D,
03,
FE,
F9,
FA,
FF,
FD,
FB,
0A,
02,
01,
01,
FA,
01,
01,
02,
FE,
FD,
02,
01,
05,
00,
03,
FB,
F8,
FF,
04,
FE,
03,
09,
F5,
00,
06,
FB,
01,
FE,
07,
F8,
00,
FD,
03,
F3,
FD,
00,
01,
FF,
07,
00,
00,
F8,
00,
00,
00,
04,
01,
0A,
03,
05,
04,
FE,
FF,
00,
FD,
FA,
FA,
09,
00,
03,
FA,
0C,
04,
04,
05,
FE,
00,
FE,
FF,
00,
FD,
FE,
04,
FA,
FF,
F9,
FD,
04,
05,
FA,
FE,
09,
02,
FC,
FF,
08,
07,
00,
F8,
04,
03,
FD,
F6,
06,
FD,
08,
06,
FD,
FA,
FC,
F7,
FF,
01,
03,
FB,
01,
01,
FE,
07,
FD,
02,
01,
00,
FA,
FC,
00,
FB,
06,
FF,
FD,
FF,
06,
01,
01,
FA,
FF,
03,
03,
0F,
FF,
FD,
03,
0A,
01,
03,
FF,
FE,
09,
04,
02,
FB,
03,
00,
00,
FC,
01,
08,
05,
07,
FD,
FB,
00,
01,
06,
04,
FF,
FE,
09,
05,
05,
04,
FD,
01,
04,
FE,
05,
FD,
FA,
FB,
FE,
00,
F4,
FF,
00,
FE,
FC,
00,
F9,
FC,
F3,
FD,
F6,
00,
00,
09,
FA,
F5,
FB,
01,
F8,
FE,
FD,
FE,
F3,
F8,
00,
02,
FD,
FE,
FE,
01,
FB,
EB,
F7,
02,
FB,
FB,
03,
07,
07,
05,
04,
0A,
FD,
F7,
02,
05,
FE,
FF,
03,
07,
FD,
FB,
06,
09,
FD,
08,
07,
FA,
02,
FB,
00,
FF,
05,
FE,
FD,
FB,
FA,
03,
04,
04,
FA,
01,
03,
FF,
FC,
03,
FF,
04,
FC,
F8,
F9,
FC,
F7,
F9,
FB,
F2,
FF,
FF,
FD,
FA,
06,
00,
FA,
04,
FF,
FF,
FD,
F8,
04,
03,
F2,
FA,
01,
08,
FF,
05,
01,
FA,
F9,
05,
F9,
FE,
0A,
00,
01,
FC,
FE,
00,
F9,
FA,
02,
FF,
FA,
FC,
02,
00,
FA,
FF,
02,
06,
01,
FB,
03,
04,
08,
08,
01,
FB,
FC,
00,
00,
01,
06,
03,
FD,
FE,
FE,
FC,
07,
FD,
01,
02,
FD,
FA,
F9,
01,
03,
FF,
FD,
01,
02,
03,
FA,
F9,
F7,
FA,
04,
FE,
01,
00,
0B,
07,
06,
F9,
06,
00,
02,
FC,
F6,
07,
04,
F9,
04,
07,
05,
FA,
02,
08,
06,
FF,
F6,
F6,
FF,
FF,
00,
FD,
07,
05,
F6,
FC,
FE,
06,
FC,
FA,
03,
FE,
04,
02,
FF,
06,
FD,
FE,
02,
05,
FA,
FE,
02,
FE,
03,
FC,
FE,
FE,
03,
02,
05,
FB,
01,
01,
FF,
F8,
0C,
03,
04,
FC,
06,
05,
FF,
FA,
FC,
02,
FD,
03,
0C,
09,
02,
FF,
FB,
04,
02,
FD,
07,
FD,
FC,
F9,
FD,
FD,
FE,
FE,
ED,
FF,
02,
07,
FD,
FF,
01,
0B,
FC,
02,
00,
05,
FF,
F8,
07,
01,
05,
FA,
07,
01,
F2,
FD,
00,
06,
F9,
01,
03,
03,
00,
00,
FE,
00,
00,
FF,
FF,
01,
03,
02,
00,
02,
00,
FD,
FF,
FD,
FE,
FA,
FD,
02,
01,
FA,
FD,
F9,
FB,
FD,
FE,
FC,
FA,
01,
FE,
FA,
FF,
FD,
00,
FC,
FC,
FF,
FD,
FC,
01,
FC,
01,
FA,
00,
FF,
FD,
FD,
04,
01,
00,
02,
02,
FD,
00,
FF,
01,
FF,
FE,
02,
FE,
00,
FD,
05,
00,
FE,
FD,
FD,
FD,
06,
01,
02,
FE,
FF,
03,
FD,
FD,
01,
FB,
FB,
01,
FF,
FC,
FF,
06,
03,
FC,
00,
04,
FE,
FD,
FE,
02,
01,
00,
FC,
FC,
02,
00,
01,
FA,
FB,
FA,
01,
FF,
00,
01,
00,
00,
FB,
00,
01,
FF,
FD,
FD,
FF,
00,
FF,
FC,
FF,
FD,
00,
02,
FB,
FF,
FD,
03,
FC,
FD,
FB,
FB,
FC,
FE,
FB,
FE,
FB,
01,
FB,
FA,
FE,
FB,
FD,
01,
FB,
FF,
00,
02,
02,
02,
02,
FD,
FE,
FF,
FF,
00,
FD,
02,
FE,
03,
00,
01,
01,
01,
FD,
01,
FE,
02,
FD,
FF,
FB,
FC,
02,
02,
FC,
FB,
FB,
00,
00,
FD,
FF,
02,
FD,
FF,
FB,
02,
FC,
FC,
FB,
FD,
FE,
00,
00,
FD,
FD,
FE,
FB,
01,
FD,
FA,
FE,
00,
03,
FE,
FC,
FA,
FF,
01,
00,
01,
FB,
FC,
FF,
01,
02,
FF,
FD,
01,
01,
FB,
FE,
02,
FF,
FD,
FC,
FF,
FD,
FF,
FA,
03,
00,
05,
FA,
04,
05,
FB,
00,
02,
FC,
02,
FF,
FF,
FF,
FD,
03,
00,
FD,
05,
FB,
FD,
00,
02,
FC,
FD,
FC,
01,
FE,
FC,
FD,
FD,
FF,
FD,
FF,
02,
02,
FB,
01,
03,
02,
00,
FF,
FD,
FD,
FC,
FE,
01,
02,
00,
FE,
00,
FE,
FD,
FF,
FF,
FE,
01,
01,
00,
FE,
FD,
FF,
01,
FC,
00,
02,
FD,
01,
FD,
01,
01,
01,
FD,
01,
FD,
FE,
01,
FD,
01,
01,
03,
FD,
00,
03,
01,
FE,
03,
02,
00,
FE,
FD,
02,
FF,
FF,
FF,
FD,
01,
00,
00,
FE,
01,
03,
01,
03,
00,
01,
FE,
FD,
01,
00,
FF,
FF,
01,
FF,
01,
03,
FF,
FE,
FE,
02,
FF,
00,
FD,
00,
FC,
00,
FD,
FC,
00,
01,
FD,
FD,
02,
FF,
02,
FD,
FE,
02,
FC,
01,
FD,
FE,
00,
02,
FD,
00,
FF,
FD,
FF,
00,
FE,
FD,
03,
FD,
FF,
02,
FE,
FC,
FD,
FC,
02,
FD,
00,
02,
FE,
00,
03,
FF,
00,
FE,
03,
FC,
FF,
00,
FD,
FD,
01,
FC,
FF,
03,
FC,
03,
03,
FE,
00,
FE,
FD,
02,
00,
00,
03,
FF,
FE,
FC,
FC,
FD,
FD,
03,
FE,
FF,
02,
FE,
00,
FC,
03,
FC,
02,
FF,
FD,
FF,
FC,
FE,
02,
03,
01,
FE,
FE,
01,
FB,
FB,
FC,
03,
01,
FE,
FE,
00,
01,
00,
01,
00,
FE,
01,
02,
FF,
00,
FB,
FC,
FC,
01,
FD,
01,
00,
01,
FC,
03,
FC,
FE,
FF,
00,
FF,
FC,
FD,
FD,
04,
00,
02,
FE,
02,
FE,
01,
01,
03,
00,
FF,
03,
02,
FD,
FE,
02,
FE,
FE,
FF,
02,
FC,
02,
00,
01,
FC,
FF,
02,
FE,
00,
00,
FD,
04,
EE,
FB,
02,
08,
06,
FB,
FB,
03,
02,
03,
02,
FA,
F5,
FB,
FF,
FE,
04,
F5,
FD,
01,
04,
02,
04,
FC,
F2,
F9,
FC,
F4,
F2,
F1,
F9,
03,
04,
FF,
FD,
0A,
02,
FD,
FB,
F7,
FD,
FD,
FB,
FF,
02,
F8,
FC,
02,
FF,
FF,
06,
06,
FB,
04,
0C,
FC,
F8,
FF,
09,
FD,
FB,
F3,
07,
FC,
FE,
FE,
07,
00,
02,
07,
FC,
03,
05,
F5,
F4,
0C,
07,
00,
01,
04,
04,
FB,
FC,
02,
05,
03,
FE,
01,
FE,
07,
FE,
F9,
09,
04,
00,
0C,
01,
05,
05,
06,
F3,
F9,
FF,
F8,
F4,
F9,
FA,
EB,
F3,
FE,
00,
05,
07,
06,
00,
08,
00,
F6,
F7,
01,
FF,
FC,
F4,
FE,
F6,
FB,
01,
0D,
03,
FD,
01,
FC,
04,
FF,
03,
FC,
09,
05,
FE,
EE,
F2,
F6,
F4,
09,
04,
09,
01,
0E,
02,
FD,
01,
FE,
02,
03,
03,
EF,
FD,
F9,
FC,
F8,
02,
01,
0A,
FF,
08,
02,
02,
00,
FE,
01,
FC,
F9,
FC,
04,
FE,
07,
01,
FE,
01,
00,
03,
04,
09,
FF,
F9,
0A,
00,
FA,
FF,
FC,
F8,
FF,
06,
03,
FB,
06,
FF,
FE,
FC,
09,
FF,
00,
F1,
00,
08,
05,
F7,
01,
FF,
FE,
02,
09,
06,
FF,
FD,
02,
00,
02,
07,
F8,
00,
FF,
FF,
02,
00,
07,
0C,
FF,
03,
ED,
FE,
F2,
FA,
F1,
F8,
EC,
FD,
01,
07,
FC,
FD,
FE,
05,
09,
02,
FF,
07,
00,
FA,
05,
FC,
00,
FA,
02,
00,
F9,
F6,
F8,
FF,
FB,
F7,
FB,
FE,
FF,
F8,
04,
00,
0A,
FC,
06,
01,
04,
01,
05,
F8,
01,
07,
08,
FD,
F6,
FE,
09,
03,
03,
09,
01,
FF,
03,
03,
07,
F7,
07,
00,
FB,
04,
FD,
05,
06,
FE,
02,
00,
04,
FA,
F9,
02,
04,
FD,
0A,
04,
FC,
08,
06,
FF,
FB,
01,
00,
FD,
FA,
F8,
05,
FC,
FB,
FD,
06,
F4,
FB,
01,
00,
F6,
FE,
09,
00,
00,
07,
07,
F4,
FA,
02,
09,
FE,
07,
FD,
FE,
00,
05,
FC,
02,
0C,
FF,
04,
08,
FC,
04,
00,
02,
F3,
FF,
F7,
F7,
0B,
08,
0A,
01,
0B,
05,
FB,
04,
F5,
FE,
01,
09,
FB,
02,
00,
00,
04,
06,
06,
FA,
04,
04,
FF,
00,
05,
07,
03,
02,
02,
FE,
FD,
F2,
F2,
00,
F7,
FD,
03,
07,
01,
FC,
06,
00,
FD,
FF,
FF,
01,
FD,
F5,
05,
0A,
03,
F8,
09,
03,
F9,
01,
F9,
F2,
FA,
FF,
01,
FB,
09,
FE,
FD,
FA,
FC,
05,
09,
F0,
FA,
FF,
F5,
01,
05,
FB,
02,
02,
00,
FE,
03,
FF,
00,
08,
FE,
F7,
FE,
04,
FA,
FD,
07,
09,
F6,
FD,
FE,
02,
02,
FE,
FC,
F5,
04,
07,
03,
08,
F3,
FC,
01,
FD,
00,
FD,
04,
FE,
0A,
03,
FF,
FD,
04,
F9,
FC,
0D,
FA,
0C,
03,
FE,
F9,
F8,
FD,
FC,
FD,
F5,
00,
0A,
03,
FD,
F7,
03,
FA,
F7,
FF,
FD,
00,
FF,
F7,
FF,
01,
FC,
FD,
01,
00,
F8,
03,
05,
02,
FE,
06,
01,
04,
F4,
FD,
02,
05,
0D,
FA,
FD,
07,
00,
01,
00,
F3,
F2,
F8,
FF,
FB,
F4,
F9,
FF,
FD,
04,
04,
02,
06,
02,
FB,
05,
EC,
EC,
FD,
01,
FE,
FF,
09,
03,
01,
07,
FC,
F2,
FE,
FD,
FB,
EF,
FC,
FD,
FE,
0B,
FC,
01,
09,
04,
FC,
04,
FE,
F9,
07,
02,
04,
02,
F9,
08,
0D,
03,
FD,
04,
04,
08,
FC,
01,
0F,
07,
FF,
04,
01,
FE,
F9,
F3,
FD,
03,
02,
F0,
FE,
03,
FE,
FA,
FD,
FC,
FD,
F7,
02,
FD,
FD,
F6,
FE,
03,
FC,
FB,
FA,
04,
0B,
F6,
FA,
FD,
02,
05,
02,
F6,
EF,
FC,
FC,
03,
F1,
F7,
FE,
06,
02,
03,
FD,
FF,
09,
FC,
FA,
F4,
F8,
F9,
FA,
01,
0B,
02,
FC,
03,
02,
FC,
F7,
FF,
04,
02,
FE,
FE,
FE,
F7,
F8,
FC,
04,
F7,
FF,
F8,
03,
F6,
F7,
F6,
04,
F7,
06,
01,
01,
FE,
0C,
06,
00,
F5,
01,
01,
F5,
05,
FE,
02,
FF,
0C,
05,
FD,
FC,
FD,
FE,
0A,
F6,
05,
00,
09,
FD,
08,
01,
FD,
03,
FE,
F7,
F4,
F2,
FE,
FA,
F7,
F8,
02,
03,
03,
FA,
FD,
FE,
FC,
FE,
F7,
F2,
FE,
F6,
FA,
02,
FC,
FB,
F6,
EF,
FB,
FB,
F9,
F3,
FA,
02,
FE,
FF,
F2,
00,
09,
09,
05,
02,
0C,
0D,
08,
02,
07,
FF,
FC,
05,
04,
FD,
F2,
04,
FD,
04,
00,
05,
0C,
04,
04,
FC,
08,
01,
03,
FC,
01,
FE,
FA,
FB,
03,
05,
0B,
07,
FF,
00,
04,
FE,
04,
01,
F9,
07,
07,
FC,
FA,
03,
00,
F6,
F3,
FE,
00,
F7,
F5,
FC,
FF,
03,
04,
00,
FD,
03,
03,
FB,
FE,
F6,
00,
01,
03,
FC,
FD,
05,
00,
00,
08,
FD,
FE,
03,
FE,
02,
FE,
01,
02,
FC,
03,
05,
08,
F8,
03,
03,
03,
02,
07,
05,
02,
04,
FB,
05,
04,
04,
FB,
06,
0D,
09,
F7,
01,
00,
07,
08,
FB,
F6,
01,
FB,
F8,
FF,
FD,
06,
FF,
04,
00,
06,
FA,
0A,
FF,
04,
F5,
FF,
FE,
FA,
F3,
F5,
F8,
FE,
FC,
FB,
F8,
F9,
FD,
09,
01,
02,
FE,
04,
05,
02,
01,
06,
01,
01,
FF,
06,
04,
FD,
FF,
00,
02,
03,
FF,
04,
07,
07,
FF,
FA,
04,
00,
FF,
F7,
FB,
02,
03,
F6,
F5,
01,
03,
09,
F9,
FC,
F9,
04,
FC,
FB,
02,
06,
FF,
01,
02,
02,
FA,
FB,
03,
04,
02,
F8,
FA,
00,
08,
03,
FA,
01,
0C,
03,
02,
FF,
04,
FB,
FB,
FD,
01,
FD,
F7,
F4,
02,
FB,
F7,
F8,
FD,
FE,
00,
04,
00,
05,
03,
02,
03,
02,
05,
FE,
FD,
00,
FE,
FD,
FA,
01,
FD,
03,
02,
FD,
FE,
04,
F8,
01,
08,
04,
FC,
FE,
05,
FF,
00,
02,
04,
03,
FA,
01,
06,
01,
00,
03,
F8,
F5,
FB,
01,
FC,
F8,
FB,
FE,
04,
05,
06,
06,
07,
03,
03,
02,
F4,
F8,
08,
02,
F8,
03,
09,
FE,
FF,
04,
07,
00,
03,
00,
FF,
FD,
09,
09,
FE,
FA,
04,
FC,
FA,
F4,
FE,
01,
04,
FD,
FE,
01,
07,
FF,
FA,
FA,
07,
01,
FE,
05,
03,
03,
04,
08,
F9,
FB,
02,
04,
02,
FD,
00,
00,
FC,
00,
00,
FE,
06,
05,
04,
04,
01,
06,
01,
01,
03,
FF,
05,
FC,
01,
FE,
FC,
12,
02,
09,
00,
06,
01,
05,
FC,
FC,
FF,
03,
04,
08,
02,
FA,
FE,
07,
04,
FB,
FB,
FD,
0A,
FF,
F8,
FA,
FF,
05,
06,
00,
02,
FB,
FD,
02,
F9,
00,
FF,
04,
07,
05,
01,
FE,
FD,
00,
F9,
FC,
FF,
FC,
FF,
FF,
03,
FA,
05,
02,
00,
02,
00,
06,
08,
04,
05,
03,
09,
02,
FA,
02,
06,
02,
FC,
FB,
01,
05,
FF,
FF,
FD,
F8,
FC,
F6,
03,
00,
F8,
FB,
05,
03,
F7,
F8,
F7,
FB,
FF,
01,
FE,
FA,
FA,
FC,
01,
FE,
03,
07,
00,
FF,
00,
FF,
FB,
00,
03,
0B,
08,
02,
FD,
05,
04,
FF,
04,
01,
01,
05,
04,
01,
0A,
01,
02,
00,
01,
00,
00,
FD,
FB,
04,
05,
04,
02,
06,
09,
06,
08,
05,
00,
FB,
08,
04,
06,
05,
05,
00,
F5,
F9,
FF,
06,
FE,
FA,
F5,
01,
04,
10,
03,
04,
02,
FF,
05,
01,
01,
FD,
00,
FC,
01,
02,
03,
04,
04,
11,
03,
FE,
FF,
01,
01,
02,
02,
FA,
FB,
FF,
00,
F9,
FD,
FD,
F9,
01,
07,
F7,
FE,
01,
FB,
FD,
05,
FE,
FC,
03,
05,
07,
0C,
09,
01,
FD,
FC,
F0,
FB,
01,
02,
FC,
00,
03,
FC,
0A,
FF,
04,
03,
07,
00,
FC,
FF,
FE,
03,
01,
02,
FE,
FF,
FA,
F5,
F7,
03,
0D,
F9,
FA,
0B,
0D,
F6,
00,
06,
00,
05,
03,
FF,
03,
FC,
01,
FF,
05,
FE,
FA,
FC,
FB,
01,
FF,
02,
FE,
04,
FB,
05,
F3,
05,
F9,
FF,
FB,
FC,
F7,
F8,
01,
05,
FF,
FB,
F8,
02,
01,
FD,
F9,
FF,
FB,
FB,
F8,
FB,
F2,
EF,
FC,
04,
FF,
00,
FD,
06,
04,
00,
00,
00,
FD,
FD,
FB,
04,
04,
00,
FD,
FF,
FE,
F9,
FA,
F9,
FF,
00,
FA,
FB,
FE,
03,
04,
00,
04,
03,
05,
F9,
FD,
02,
02,
05,
00,
F7,
00,
02,
FC,
0A,
0A,
07,
04,
03,
01,
05,
02,
05,
05,
FA,
02,
06,
08,
FD,
FE,
05,
00,
F5,
FE,
03,
FA,
FE,
01,
FE,
FB,
F6,
F7,
FA,
FD,
FC,
04,
08,
FA,
FF,
04,
04,
02,
F9,
03,
04,
FF,
00,
00,
02,
FB,
04,
04,
FE,
01,
01,
07,
00,
FC,
FD,
03,
00,
FD,
FB,
FE,
02,
FB,
FD,
FB,
07,
07,
FC,
F9,
FF,
00,
FA,
F8,
FC,
0B,
03,
FF,
03,
0F,
02,
F7,
F7,
FF,
06,
06,
03,
F3,
F9,
03,
FB,
05,
02,
02,
02,
01,
05,
04,
FE,
F8,
00,
09,
0C,
FE,
00,
FD,
04,
F7,
FC,
FD,
FE,
09,
FC,
FE,
04,
09,
F6,
FF,
FF,
05,
04,
05,
04,
F5,
08,
FD,
FD,
FB,
02,
01,
05,
02,
FC,
FE,
00,
FC,
00,
04,
FE,
FE,
FD,
F8,
FD,
FE,
00,
03,
FB,
FB,
F7,
05,
06,
03,
FC,
FD,
FD,
06,
FF,
FE,
FF,
06,
05,
FE,
03,
FD,
0C,
04,
FC,
F4,
06,
04,
FE,
00,
00,
FE,
03,
01,
00,
F6,
00,
FA,
04,
FB,
FF,
FE,
FF,
08,
0A,
0A,
04,
00,
FF,
00,
04,
02,
00,
FE,
FE,
05,
02,
FF,
FD,
FC,
0A,
06,
FD,
FF,
06,
05,
01,
01,
04,
FC,
FD,
07,
11,
05,
03,
02,
03,
F6,
01,
FE,
07,
02,
06,
FF,
03,
07,
F3,
F4,
F8,
03,
06,
00,
01,
FE,
03,
05,
05,
00,
06,
09,
08,
FC,
FB,
F9,
FA,
FB,
00,
03,
FD,
FB,
00,
07,
01,
00,
05,
01,
FF,
FE,
F8,
F5,
F8,
FD,
04,
02,
02,
00,
F9,
FE,
FE,
FA,
FB,
FF,
FF,
02,
02,
FF,
00,
00,
FF,
02,
FF,
FF,
01,
0C,
09,
05,
09,
06,
FC,
FD,
00,
01,
FC,
F7,
FA,
F8,
03,
FD,
00,
07,
FE,
06,
F9,
FE,
FA,
FA,
FD,
F8,
04,
00,
F8,
00,
02,
02,
0E,
07,
03,
01,
FE,
FF,
FB,
F7,
FC,
FF,
00,
FF,
00,
FD,
00,
FD,
FF,
05,
FF,
FB,
04,
00,
03,
04,
08,
03,
00,
FF,
05,
FE,
FE,
FB,
02,
04,
03,
01,
07,
05,
03,
07,
EF,
F1,
F8,
FB,
09,
03,
00,
09,
0C,
02,
0A,
FF,
0B,
FF,
03,
00,
04,
01,
06,
FF,
F1,
01,
03,
05,
FA,
05,
02,
FD,
03,
FD,
FF,
FB,
F8,
FD,
04,
06,
03,
FC,
00,
06,
01,
02,
04,
03,
FE,
02,
08,
04,
01,
F3,
00,
05,
F5,
F7,
F4,
F8,
F1,
F8,
F8,
07,
FF,
FA,
01,
04,
FE,
FC,
04,
00,
FA,
FC,
F8,
00,
FB,
FE,
FE,
05,
08,
FF,
FD,
FA,
FD,
FE,
04,
03,
00,
01,
FC,
0A,
FD,
FB,
F0,
06,
0B,
06,
FF,
FD,
06,
05,
FA,
05,
0A,
07,
07,
01,
06,
04,
F8,
FC,
FF,
05,
00,
FF,
03,
FF,
FD,
03,
03,
04,
06,
04,
03,
02,
FF,
02,
00,
FE,
02,
02,
05,
07,
FF,
FC,
EE,
EE,
F2,
F5,
00,
F9,
FC,
FB,
02,
FD,
07,
00,
FB,
F9,
FF,
03,
09,
00,
04,
F8,
04,
02,
FF,
0A,
01,
04,
FE,
FE,
02,
FE,
F9,
04,
FA,
F6,
F9,
01,
FB,
F4,
F4,
FB,
FE,
F2,
F0,
FD,
F1,
F7,
FE,
F0,
EC,
F2,
02,
FF,
02,
04,
0B,
07,
00,
FF,
04,
FE,
02,
02,
04,
FF,
03,
FE,
FC,
FD,
0B,
FA,
FE,
08,
FF,
00,
04,
06,
FB,
03,
02,
03,
FB,
00,
F7,
FB,
F9,
03,
03,
0A,
0B,
09,
01,
F9,
09,
02,
F7,
FB,
05,
01,
FD,
FE,
02,
03,
FD,
F7,
09,
07,
FF,
04,
FE,
FD,
02,
FE,
04,
04,
09,
FE,
06,
08,
01,
05,
FD,
FB,
FE,
01,
07,
00,
00,
F9,
E9,
F7,
F8,
03,
FA,
FB,
FF,
FB,
05,
FA,
FD,
FC,
F8,
FD,
00,
05,
FE,
FA,
F9,
FB,
F3,
FB,
FA,
FF,
03,
05,
06,
09,
09,
02,
02,
FF,
F3,
E7,
01,
00,
FD,
F3,
01,
07,
02,
FB,
00,
06,
02,
F0,
08,
02,
FA,
04,
11,
