memory_initialization_radix=16;
memory_initialization_vector=
05,
05,
07,
06,
00,
04,
02,
FF,
01,
04,
01,
00,
FB,
0B,
FE,
03,
01,
FB,
F8,
FB,
06,
02,
06,
FF,
FB,
06,
FC,
00,
06,
FB,
FE,
00,
02,
01,
05,
06,
03,
FF,
03,
FF,
FF,
FC,
FD,
FC,
00,
FD,
05,
FC,
01,
07,
FD,
00,
F9,
05,
02,
FE,
00,
FA,
F9,
FE,
04,
FE,
02,
05,
00,
08,
04,
FC,
03,
FC,
00,
07,
FE,
01,
F8,
F8,
01,
05,
05,
02,
FB,
FE,
07,
05;
