memory_initialization_radix=16;
memory_initialization_vector=
06,
06,
FE,
06,
FB,
FA,
FE,
FB,
00,
0A,
ED,
F9,
FE,
FB,
00,
0A,
0C,
FE,
FF,
03,
FE,
FA,
07,
FE,
02,
00,
01,
05,
02,
02,
03,
07,
0E,
00,
FF,
01,
01,
03,
F8,
03,
FF,
ED,
FB,
04,
FC,
F6,
F9,
00,
F4,
FD,
04,
02,
FB,
07,
02,
FA,
0A,
02,
04,
07,
01,
FE,
01,
F9,
FE,
FF,
07,
06,
FB,
03,
08,
00,
EF,
08,
08,
FA,
08,
07,
FA,
FB,
04,
04,
FE,
09,
00,
01,
02,
FE,
06,
01,
06,
00,
08,
00,
FC,
00,
0D,
F9,
08,
F9,
FA,
06,
FB,
01,
03,
01,
00,
FF,
FE,
01,
FD,
FD,
0C,
FE,
01,
00,
06,
FB,
FF,
06,
FF,
02,
08,
E7,
06,
03,
03,
00,
FD,
FD,
FB,
04,
F3,
FC,
02,
01,
FF,
02,
FE,
FF,
0E,
00,
02,
0E,
02,
04,
FE,
02,
02,
F9,
FF,
FA,
03,
06,
FB,
01,
F7,
08,
04,
09,
03,
00,
02,
04,
07,
00,
09,
04,
00,
06,
02,
FE,
00,
00,
02,
F9,
FA,
00,
02,
09,
03,
F5,
05,
06,
F9,
02,
0A,
03,
02,
02,
EF,
FB,
FD,
01,
FF,
FB,
0D,
FA,
00,
F8,
FF,
FE,
FE,
05,
FD,
FA,
F5,
04,
FE,
01,
08,
07,
05,
05,
00,
08,
02,
07,
F8,
F8,
EF,
05,
08,
08,
01,
02,
02,
07,
07,
01,
F7,
04,
05,
FE,
0C,
FC,
10,
03,
FE,
F9,
FA,
FE,
F5,
FF,
01,
03,
04,
FE,
FF,
FD,
04,
F4,
06,
FC,
02,
F9,
06,
03,
00,
FD,
00,
05,
F9,
0A,
00,
04,
04,
05,
FD,
FD,
03,
FE,
F9,
FA,
07,
03,
F6,
03,
0F,
06,
FF,
04,
03,
FC,
03,
11,
FF,
05,
03,
03,
FF,
FC,
07,
04,
FC,
07,
01,
02,
00,
03,
F6,
03,
02,
02,
06,
F8,
08,
08,
00,
06,
07,
F7,
11,
F3,
FF,
02,
04,
07,
04,
05,
FB,
F7,
FC,
04,
02,
07,
05,
08,
04,
09,
04,
FC,
F8,
FE,
FC,
FD,
F6,
07,
F5,
03,
06,
06,
05,
FD,
FF,
02,
FC,
FE,
FD,
F9,
06,
FE,
F8,
0B,
FF,
06,
FE,
08,
00,
04,
FA,
FF,
02,
F6,
FD,
FE,
09,
FF,
02,
07,
00,
06,
01,
01,
00,
09,
FE,
00,
FE,
FE,
04,
FC,
07,
0B,
FE,
06,
01,
02,
F9,
00,
FD,
FB,
07,
02,
F6,
03,
01,
01,
00,
FA,
05,
06,
05,
04,
04,
F6,
0C,
FF,
05,
F9,
F9,
FD,
01,
F4,
FB,
09,
FE,
06,
05,
FC,
02,
EC,
05,
F6,
F3,
FD,
FF,
03,
00,
FF,
FE,
02,
FF,
08,
FE,
08,
07,
EF,
0A,
FC,
04,
08,
FF,
08,
FD,
FC,
02,
02,
00,
F8,
06,
03,
08,
F9,
00,
00,
07,
FD,
F6,
01,
F5,
06,
FE,
08,
FB,
06,
09,
0B,
09,
FB,
FF,
FF,
04,
05,
03,
02,
02,
FC,
06,
FF,
0A,
09,
FB,
0A,
F6,
00,
FF,
00,
F6,
05,
FE,
FD,
0D,
07,
05,
FC,
01,
04,
02,
01,
00,
FC,
06,
08,
07,
02,
F8,
FF,
02,
FB,
FB,
01,
02,
04,
FF,
F8,
0B,
FD,
03,
05,
02,
03,
08,
F5,
FE,
09,
FF,
FD,
02,
FF,
FA,
02,
F6,
05,
0E,
08,
00,
02,
FC,
FF,
FC,
0A,
FD,
01,
FB,
0D,
02,
02,
03,
FF,
03,
FE,
0B,
F9,
06,
F8,
FB,
FF,
0E,
04,
05,
03,
FD,
FD,
02,
04,
07,
0D,
FE,
F9,
02,
00,
00,
F7,
01,
FC,
FC,
02,
F9,
01,
08,
FB,
FC,
FD,
FB,
03,
F7,
07,
F8,
02,
02,
FE,
FB,
08,
F8,
04,
00,
0A,
03,
0A,
FA,
08,
FA,
04,
04,
0A,
FC,
02,
01,
06,
F9,
FC,
06,
04,
01,
FB,
00,
FE,
FB,
07,
FE,
05,
07,
FA,
F9,
05,
0D,
FF,
FD,
FF,
FD,
0B,
FA,
02,
04,
FE,
FB,
FF,
FC,
F9,
02,
EE,
00,
FB,
02,
F8,
F5,
05,
00,
04,
06,
FF,
00,
00,
FF,
01,
07,
01,
FD,
FB,
0B,
09,
FA,
FC,
FF,
F6,
05,
FD,
FE,
FE,
0D,
00,
F6,
09,
0A,
06,
03,
04,
04,
00,
FE,
FE,
F9,
F5,
01,
07,
F7,
05,
06,
00,
F6,
FC,
FE,
09,
06,
01,
08,
F5,
05,
F8,
F6,
07,
07,
00,
FF,
03,
04,
F8,
F8,
F9,
FD,
05,
F7,
F6,
00,
05,
03,
06,
07,
05,
07,
FF,
F9,
00,
FC,
F5,
01,
FC,
FE,
05,
FE,
FC,
03,
FE,
FF,
03,
11,
FB,
02,
F7,
00,
FE,
05,
FB,
FD,
08,
00,
08,
FB,
01,
00,
0A,
08,
01,
05,
FD,
0A,
FB,
04,
0C,
FB,
FE,
07,
FD,
FD,
FF,
07,
FA,
08,
03,
07,
01,
FD,
FE,
0D,
F8,
05,
FE,
FB,
04,
FE,
06,
FC,
0D,
05,
05,
FC,
FE,
03,
05,
FF,
F7,
14,
FB,
FF,
04,
FF,
F4,
0D,
06,
05,
0B,
01,
0B,
FA,
02,
FB,
FE,
07,
FC,
03,
FF,
01,
FA,
02,
F6,
FB,
08,
0B,
FA,
05,
FA,
FB,
FA,
FC,
06,
02,
00,
00,
FC,
FE,
FA,
01,
05,
05,
07,
02,
04,
07,
05,
F9,
00,
FD,
F9,
0C,
FC,
07,
FD,
02,
01,
F6,
F4,
02,
02,
FF,
FF,
0A,
FF,
02,
FA,
FC,
F8,
09,
F9,
FE,
08,
03,
04,
FF,
FB,
FF,
05,
07,
04,
03,
FF,
F9,
FE,
07,
04,
FB,
05,
00,
06,
FF,
FC,
02,
06,
FD,
FE,
03,
02,
FE,
08,
F6,
0A,
FB,
FE,
FF,
02,
07,
F9,
FF,
F9,
FF,
FD,
02,
07,
01,
FE,
00,
FD,
0A,
F1,
FD,
03,
08,
FF,
04,
F7,
04,
00,
02,
02,
FD,
FA,
FD,
03,
FF,
06,
FF,
FF,
FF,
F4,
FB,
00,
02,
FB,
F6,
F8,
06,
FC,
FB,
0C,
F9,
06,
FF,
08,
02,
F8,
02,
FC,
00,
01,
F7,
02,
07,
F9,
FF,
F8,
0C,
FF,
08,
03,
FA,
FA,
01,
FF,
FA,
06,
06,
FF,
FF,
09,
FB,
04,
F6,
FD,
02,
0A,
03,
04,
FC,
0E,
FB,
02,
05,
06,
00,
FE,
FD,
02,
FA,
FE,
00,
F8,
01,
FE,
F5,
05,
0A,
F9,
0A,
06,
01,
FD,
FB,
FF,
03,
FE,
FB,
06,
FA,
F6,
08,
FB,
0A,
02,
03,
02,
07,
F1,
01,
00,
F5,
02,
07,
FD,
06,
00,
F8,
08,
F7,
06,
08,
FD,
03,
04,
0B,
FB,
00,
FA,
00,
00,
00,
FE,
F3,
09,
FE,
03,
FF,
02,
02,
0B,
05,
07,
FE,
F8,
FF,
F7,
03,
00,
01,
02,
04,
F9,
FA,
03,
FC,
10,
EE,
01,
F7,
03,
08,
FA,
FE,
06,
FF,
00,
05,
02,
0D,
00,
0A,
01,
FD,
01,
FE,
04,
FD,
08,
F8,
04,
03,
05,
05,
01,
FD,
06,
0C,
02,
FA,
07,
02,
05,
FB,
FC,
04,
F6,
01,
01,
01,
FA,
F1,
FE,
F8,
05,
FA,
00,
08,
05,
FB,
05,
00,
01,
09,
FD,
F2,
FE,
F9,
04,
03,
FA,
03,
FB,
03,
02,
02,
01,
F6,
FF,
F9,
0A,
02,
FD,
06,
05,
FA,
01,
FC,
FE,
EC,
FE,
FC,
F6,
10,
01,
FA,
F5,
02,
01,
FF,
08,
06,
01,
00,
00,
00,
03,
00,
FF,
FD,
02,
FB,
05,
02,
02,
0C,
08,
E4,
FB,
01,
01,
05,
FD,
02,
FC,
08,
FE,
F4,
03,
16,
0B,
01,
00,
04,
03,
F9,
F9,
F6,
04,
FD,
02,
FE,
08,
FB,
FB,
00,
02,
01,
FE,
02,
08,
01,
02,
FB,
FD,
03,
01,
FD,
02,
03,
FE,
05,
04,
F8,
FC,
04,
02,
05,
05,
F3,
04,
04,
FA,
F8,
FE,
08,
01,
04,
F8,
FB,
F4,
FD,
FF,
F9,
04,
03,
07,
02,
FC,
F7,
0E,
05,
02,
01,
FE,
FF,
03,
00,
14,
FF,
00,
04,
F9,
00,
01,
01,
FD,
06,
04,
09,
07,
05,
05,
02,
0F,
04,
05,
02,
F8,
01,
F7,
FD,
00,
01,
02,
06,
05,
F6,
FF,
03,
01,
01,
F9,
04,
F4,
FF,
04,
02,
00,
FE,
FA,
FD,
F9,
FA,
FB,
FF,
01,
04,
00,
F6,
FD,
04,
08,
FE,
01,
FC,
03,
FF,
01,
F7,
FD,
FF,
FF,
00,
02,
F8,
FA,
F8,
F3,
07,
FB,
01,
07,
07,
03,
03,
00,
08,
FD,
05,
FA,
FD,
07,
05,
08,
01,
05,
FD,
04,
04,
FE,
04,
00,
07,
03,
03,
13,
FC,
FE,
02,
01,
00,
04,
FA,
FC,
0C,
00,
07,
04,
0C,
07,
03,
F6,
00,
00,
FE,
02,
FE,
0C,
FF,
0B,
FF,
FD,
05,
FD,
FC,
FB,
FE,
09,
14,
00,
FD,
FA,
FC,
FD,
09,
04,
02,
07,
FD,
00,
FD,
FA,
08,
FC,
FC,
F9,
01,
04,
03,
FE,
01,
FB,
00,
01,
04,
FF,
0C,
FE,
FE,
FA,
06,
0E,
06,
F6,
F9,
F3,
04,
02,
FA,
FB,
07,
FC,
FA,
02,
06,
FE,
08,
03,
0C,
FC,
FE,
F8,
FE,
03,
01,
0B,
01,
01,
FE,
08,
01,
FF,
06,
FA,
FF,
FA,
09,
FA,
FC,
02,
01,
FD,
F4,
FB,
06,
FC,
00,
02,
02,
03,
FD,
FD,
04,
06,
F5,
02,
05,
09,
FD,
01,
FA,
FE,
05,
FF,
F4,
01,
F6,
FF,
01,
04,
FC,
04,
05,
0D,
FB,
FF,
F6,
02,
FB,
FB,
02,
08,
FF,
01,
FF,
FF,
08,
F7,
F8,
FF,
FD,
F5,
08,
F9,
FC,
FE,
06,
01,
05,
07,
FF,
08,
0F,
0C,
00,
F9,
01,
FC,
02,
01,
00,
05,
00,
09,
03,
06,
F8,
FE,
04,
FB,
02,
F4,
FC,
FD,
01,
02,
FD,
02,
09,
07,
FE,
08,
F7,
F9,
F9,
FD,
F3,
05,
FF,
F1,
0C,
0A,
05,
06,
08,
03,
FC,
FD,
F1,
FB,
04,
01,
FC,
FD,
04,
F6,
07,
FC,
0A,
FE,
02,
08,
FB,
06,
00,
FB,
FD,
02,
02,
04,
04,
08,
F7,
FB,
0A,
F8,
FB,
F4,
FD,
FE,
04,
02,
00,
FE,
05,
06,
FD,
FE,
03,
01,
FA,
04,
FB,
EF,
05,
FF,
01,
FF,
01,
FC,
FF,
FD,
03,
07,
05,
FB,
07,
FB,
0A,
02,
01,
09,
02,
06,
FC,
00,
06,
FA,
FD,
FE,
FE,
F6,
F7,
FA,
03,
01,
07,
FC,
07,
FA,
FA,
05,
02,
FA,
F8,
FA,
F2,
02,
07,
0C,
02,
08,
05,
FE,
06,
F8,
05,
00,
03,
F6,
FF,
08,
07,
FE,
06,
02,
FA,
06,
FF,
04,
03,
07,
07,
FE,
02,
F8,
07,
07,
02,
06,
05,
FB,
FF,
FC,
FF,
FD,
07,
FF,
01,
0B,
04,
FE,
0B,
FE,
FA,
02,
06,
F4,
FB,
00,
FC,
FD,
05,
FF,
FE,
01,
FF,
02,
03,
06,
03,
FE,
08,
03,
05,
02,
01,
01,
07,
FA,
03,
0D,
00,
F8,
01,
01,
FE,
03,
02,
FB,
F2,
F8,
F9,
08,
04,
FC,
FB,
09,
FE,
FF,
FE,
08,
F9,
FF,
08,
01,
07,
09,
FB,
FD,
04,
FE,
F5,
F6,
FB,
FE,
02,
02,
00,
FE,
04,
FF,
FA,
02,
EF,
00,
03,
08,
07,
08,
02,
F8,
09,
FC,
07,
FE,
08,
01,
01,
FB,
00,
0C,
06,
04,
FE,
07,
F5,
03,
FB,
FA,
0B,
04,
00,
05,
04,
FC,
00,
F3,
FE,
06,
FF,
FD,
F8,
03,
01,
08,
FB,
01,
03,
FD,
07,
04,
06,
FC,
FF,
08,
02,
05,
06,
FF,
FD,
F8,
08,
07,
0A,
FE,
F7,
01,
06,
F4,
FF,
01,
FF,
FF,
FC,
03,
01,
FE,
F9,
0C,
FA,
00,
05,
F4,
FC,
06,
F7,
09,
01,
06,
FF,
FA,
05,
02,
01,
FD,
08,
FD,
FB,
FC,
03,
FD,
00,
08,
03,
02,
FB,
05,
FD,
F6,
06,
FC,
FF,
00,
00,
FD,
F3,
FC,
03,
00,
03,
FF,
FB,
01,
00,
F8,
FF,
06,
FE,
02,
03,
FC,
F9,
F0,
FC,
FA,
FD,
02,
F9,
F9,
FC,
00,
08,
06,
FE,
0A,
F5,
06,
FF,
FC,
05,
FC,
07,
FE,
05,
09,
F3,
FE,
FC,
0A,
00,
05,
0D,
00,
FF,
F6,
00,
03,
07,
FF,
FE,
03,
02,
06,
09,
FF,
05,
08,
07,
04,
01,
FC,
F6,
01,
FC,
FD,
FA,
00,
F9,
00,
06,
01,
FA,
00,
FA,
FC,
01,
02,
02,
09,
F7,
FB,
02,
FA,
03,
05,
09,
08,
04,
F7,
00,
04,
0A,
08,
06,
06,
0B,
FC,
04,
FD,
04,
01,
0A,
0C,
09,
FA,
FF,
FC,
04,
FF,
FE,
01,
01,
02,
0C,
02,
FE,
FE,
04,
FD,
FD,
FF,
10,
F8,
08,
FB,
FC,
F8,
05,
02,
FB,
03,
05,
04,
F9,
F5,
02,
05,
10,
FF,
00,
07,
06,
F9,
FC,
00,
FE,
FC,
09,
06,
04,
FB,
F9,
01,
0B,
08,
FE,
FF,
00,
FE,
04,
04,
04,
05,
05,
FD,
09,
FF,
FF,
FC,
03,
FF,
FD,
FC,
FE,
06,
05,
00,
FF,
FE,
FA,
FE,
08,
FD,
06,
FC,
05,
F7,
04,
FF,
FC,
F6,
05,
03,
F4,
F9,
FC,
FE,
F9,
11,
F5,
FB,
FF,
03,
FF,
00,
F9,
09,
03,
FA,
0A,
10,
04,
00,
FC,
00,
0F,
01,
FA,
FC,
02,
03,
02,
0F,
02,
FB,
FF,
02,
00,
08,
01,
FE,
0E,
0C,
FC,
00,
00,
FF,
FF,
FB,
02,
FD,
10,
00,
01,
05,
01,
01,
FF,
04,
02,
03,
F5,
03,
05,
06,
FC,
03,
0B,
05,
FC,
03,
FB,
F9,
03,
07,
00,
FC,
00,
01,
F8,
05,
F8,
03,
02,
FA,
FD,
FF,
FD,
FE,
FD,
FF,
01,
04,
FF,
01,
FF,
FA,
FF,
00,
02,
FA,
F9,
FF,
FF,
05,
00,
FF,
F9,
01,
02,
03,
FC,
03,
FF,
F9,
FB,
05,
06,
FB,
02,
01,
FF,
FB,
F9,
FE,
FF,
FD,
FE,
FC,
03,
00,
FB,
FF,
00,
FA,
00,
FB,
01,
06,
FC,
02,
01,
FC,
FD,
00,
FB,
FC,
FB,
F9,
FA,
F9,
FB,
01,
00,
FC,
02,
00,
FC,
01,
02,
FD,
F9,
FC,
03,
FB,
F6,
04,
00,
FC,
03,
FC,
00,
FB,
02,
FA,
00,
FD,
03,
FA,
03,
05,
FC,
00,
FD,
F8,
FD,
02,
FD,
F8,
FC,
01,
02,
03,
00,
06,
04,
FD,
00,
0A,
F4,
08,
00,
FB,
00,
FE,
07,
06,
03,
03,
01,
FF,
F7,
02,
FB,
F9,
FD,
03,
F8,
FA,
FC,
F6,
FC,
FC,
FB,
03,
01,
01,
04,
00,
04,
02,
06,
04,
FC,
FC,
09,
FA,
FF,
05,
05,
FA,
F4,
03,
03,
FC,
FB,
FA,
06,
02,
04,
0E,
FE,
FA,
FC,
FA,
0A,
06,
FD,
03,
FB,
07,
FA,
F8,
03,
FB,
02,
FF,
FE,
08,
03,
05,
F7,
1A,
FE,
00,
FF,
05,
04,
FE,
05,
05,
08,
04,
FC,
03,
00,
04,
09,
02,
FD,
FA,
0B,
02,
F5,
01,
0D,
00,
02,
02,
FE,
06,
04,
02,
FE,
02,
02,
FF,
F1,
FB,
FF,
03,
F7,
FC,
FE,
05,
FC,
04,
04,
03,
FA,
09,
01,
FF,
FD,
FF,
05,
FE,
00,
09,
03,
FC,
FD,
01,
FA,
FE,
03,
FA,
F7,
FB,
04,
05,
05,
00,
FD,
FC,
05,
00,
00,
FF,
05,
04,
F9,
FA,
FF,
FF,
04,
15,
00,
04,
FE,
09,
01,
FE,
FB,
06,
00,
FF,
04,
F7,
F7,
04,
FA,
09,
00,
05,
FC,
FA,
FE,
09,
0B,
FE,
FB,
04,
06,
01,
FF,
FD,
09,
F9,
FC,
03,
06,
07,
00,
05,
FB,
FC,
05,
07,
01,
05,
07,
FE,
04,
06,
FB,
FD,
FD,
03,
FC,
07,
FC,
FC,
06,
0F,
0B,
02,
FB,
FD,
04,
FF,
FB,
09,
09,
F9,
FF,
03,
F7,
0C,
07,
09,
F3,
02,
06,
04,
06,
FC,
01,
FB,
FE,
FC,
02,
FC,
FF,
FB,
FF,
FE,
02,
F6,
05,
09,
03,
02,
04,
F9,
F8,
02,
09,
FB,
01,
00,
FF,
03,
FF,
07,
FA,
01,
03,
03,
04,
FB,
FC,
00,
09,
06,
F6,
01,
08,
F8,
FC,
0A,
02,
04,
06,
FC,
07,
FD,
02,
04,
03,
07,
FF,
FF,
FC,
07,
00,
0A,
02,
0A,
03,
F9,
FF,
FE,
01,
01,
FB,
F9,
0E,
F6,
00,
04,
FC,
FC,
07,
05,
FF,
01,
FE,
0B,
FC,
08,
09,
06,
06,
FC,
06,
FC,
01,
FD,
05,
F3,
FB,
0D,
FC,
01,
05,
FD,
FF,
00,
FE,
0A,
07,
FE,
0A,
FE,
00,
FF,
03,
0B,
ED,
01,
01,
03,
FB,
08,
07,
07,
FE,
03,
07,
0E,
08,
06,
09,
01,
FA,
FF,
FC,
FF,
03,
03,
FE,
FC,
FE,
F9,
FB,
FB,
03,
F2,
01,
FF,
01,
02,
FB,
05,
03,
06,
07,
05,
05,
08,
FD,
00,
07,
F9,
FF,
FE,
FD,
06,
0A,
02,
FD,
FD,
04,
FF,
00,
06,
07,
FD,
00,
0B,
02,
FD,
04,
F8,
04,
FF,
06,
FE,
07,
FF,
FF,
FE,
F9,
02,
08,
F7,
02,
02,
00,
05,
05,
FE,
FB,
05,
05,
03,
03,
FF,
FF,
FE,
07,
F9,
02,
05,
FE,
01,
02,
FC,
FF,
04,
06,
05,
06,
08,
FD,
01,
02,
01,
FF,
0F,
01,
06,
FE,
FD,
07,
02,
FD,
FD,
01,
03,
FA,
FB,
02,
02,
FC,
FF,
02,
04,
F9,
09,
FB,
FB,
04,
FC,
06,
FE,
FC,
03,
FD,
FE,
FD,
05,
FF,
F7,
F1,
FF,
01,
ED,
07,
F9,
F1,
F9,
FC,
FA,
00,
FF,
FB,
FE,
08,
FE,
EE,
01,
FC,
FF,
05,
03,
F9,
F1,
07,
06,
03,
FD,
02,
F1,
04,
FD,
06,
FE,
06,
09,
06,
FF,
FF,
FD,
02,
FE,
FD,
06,
00,
FC,
06,
F7,
FE,
FC,
13,
09,
FE,
03,
04,
06,
03,
F6,
F8,
FC,
04,
08,
02,
00,
01,
FE,
00,
F8,
08,
11,
00,
FC,
FA,
07,
FD,
02,
08,
E8,
0A,
04,
FA,
00,
FB,
F8,
FE,
FF,
FC,
00,
02,
04,
ED,
FE,
F7,
02,
F7,
F6,
FE,
03,
04,
F7,
FB,
00,
F7,
FE,
F7,
FB,
07,
00,
FE,
F2,
FF,
FF,
FE,
F6,
01,
FD,
FF,
FB,
01,
05,
04,
FD,
04,
FD,
05,
00,
09,
FA,
03,
FD,
FE,
FF,
05,
FD,
FF,
FB,
05,
FB,
FD,
07,
01,
02,
02,
04,
08,
03,
0A,
FC,
FF,
F7,
06,
03,
04,
FF,
F5,
F7,
00,
FE,
FD,
01,
04,
F5,
01,
FE,
F6,
02,
FE,
04,
01,
FF,
FA,
07,
FE,
FF,
F9,
F9,
F5,
F8,
04,
F4,
03,
01,
FF,
05,
FB,
F8,
FF,
FE,
F6,
02,
03,
FB,
05,
F9,
00,
FC,
F7,
F4,
FF,
FD,
FE,
01,
F4,
FE,
02,
F6,
09,
F9,
F5,
FD,
FE,
01,
F9,
FC,
04,
03,
F6,
F9,
F8,
04,
FC,
08,
02,
10,
00,
06,
00,
04,
00,
0A,
F8,
F3,
07,
07,
03,
FE,
FA,
04,
FF,
F2,
F4,
FE,
FC,
EE,
01,
00,
02,
00,
FF,
FE,
05,
00,
08,
04,
04,
FF,
FD,
FE,
FF,
F6,
09,
F7,
FC,
03,
08,
FE,
FD,
01,
FE,
FC,
F9,
03,
03,
FD,
07,
07,
08,
FC,
00,
F8,
06,
00,
02,
F9,
0A,
04,
03,
02,
00,
FD,
11,
FC,
FB,
0B,
07,
FF,
FD,
0B,
04,
05,
FF,
07,
FF,
02,
01,
04,
FF,
F7,
FC,
07,
F7,
FB,
0A,
FC,
04,
07,
06,
EF,
02,
03,
F9,
05,
02,
F9,
FC,
F7,
FF,
FF,
00,
00,
FA,
03,
00,
FC,
03,
08,
F5,
FD,
05,
05,
0A,
FE,
06,
FB,
05,
FB,
01,
03,
03,
FC,
02,
FC,
F8,
05,
FE,
F4,
FD,
03,
07,
07,
03,
FD,
FB,
02,
05,
00,
F9,
FC,
08,
F5,
01,
FF,
FB,
01,
03,
09,
FD,
08,
FB,
06,
06,
F9,
02,
08,
FE,
0E,
01,
FD,
02,
03,
04,
04,
FF,
FC,
F5,
FB,
01,
02,
06,
08,
F8,
02,
FC,
0B,
07,
02,
08,
FE,
03,
05,
F6,
FC,
FA,
FC,
FE,
F2,
03,
03,
F9,
07,
FA,
FB,
FE,
07,
02,
FE,
08,
04,
F6,
09,
08,
FC,
FB,
09,
03,
07,
F6,
07,
0C,
02,
07,
FE,
05,
F8,
07,
03,
F7,
FC,
06,
04,
FA,
02,
01,
0D,
03,
FB,
09,
03,
FE,
FD,
F8,
F9,
08,
FD,
FE,
FC,
06,
00,
FF,
FE,
FA,
FF,
F9,
04,
02,
05,
00,
06,
03,
FD,
01,
FE,
03,
0D,
FE,
00,
FF,
FE,
05,
08,
04,
02,
03,
07,
FF,
FC,
F9,
06,
FE,
01,
FD,
01,
03,
FE,
08,
F6,
00,
04,
03,
FE,
FC,
FE,
00,
FA,
FF,
0A,
FE,
09,
02,
FF,
FF,
EE,
05,
FB,
FB,
00,
02,
FE,
FE,
01,
FA,
07,
07,
02,
0B,
05,
02,
FB,
05,
F8,
FE,
08,
04,
FD,
01,
FB,
F7,
FF,
07,
F8,
05,
03,
0B,
01,
FE,
00,
08,
F8,
F7,
FB,
FE,
00,
02,
0B,
FF,
FD,
FE,
0F,
02,
05,
05,
00,
FA,
FB,
03,
05,
03,
01,
FB,
00,
FA,
09,
F8,
02,
01,
0A,
FE,
05,
FF,
05,
04,
FD,
FB,
FB,
FC,
FE,
01,
FD,
00,
FB,
F2,
FD,
07,
F3,
02,
05,
04,
09,
F8,
FD,
FD,
0C,
00,
FD,
0A,
07,
FB,
FE,
0E,
F9,
FB,
F2,
FC,
F7,
05,
F7,
FC,
FE,
04,
03,
FF,
FE,
F9,
0A,
0B,
03,
06,
F8,
04,
FB,
05,
02,
02,
04,
08,
FF,
01,
03,
FB,
04,
10,
06,
06,
01,
04,
01,
FB,
01,
09,
06,
FD,
02,
03,
FB,
06,
06,
F5,
F7,
08,
02,
F1,
04,
02,
FA,
03,
F6,
FA,
03,
02,
F6,
F2,
02,
01,
08,
05,
07,
01,
F3,
06,
01,
00,
05,
FB,
FF,
03,
01,
02,
0A,
08,
FF,
FC,
FD,
FB,
FA,
FB,
FD,
FA,
FD,
FB,
FA,
F8,
FF,
03,
03,
06,
FD,
F9,
FE,
FF,
FD,
00,
06,
FC,
03,
FA,
FB,
04,
00,
02,
FC,
FD,
FE,
04,
FA,
00,
01,
03,
03,
FD,
01,
FE,
FB,
04,
FA,
FC,
02,
FD,
FE,
00,
05,
05,
03,
FF,
FE,
04,
FB,
01,
FC,
00,
FB,
05,
FC,
FB,
04,
00,
05,
FD,
02,
01,
05,
FF,
00,
01,
01,
03,
FB,
FF,
F9,
FB,
FD,
FE,
02,
FD,
FD,
FC,
F8,
F9,
F8,
02,
FD,
03,
01,
FA,
FB,
01,
F8,
FC,
FF,
04,
FF,
FB,
FD,
FF,
FE,
FD,
02,
FE,
03,
FC,
FC,
FD,
FD,
01,
FE,
01,
F8,
02,
04,
FA,
02,
FC,
FC,
F9,
FE,
FD,
FA,
F9,
03,
03,
FB,
FF,
0B,
FD,
FF,
FB,
FD,
01,
FC,
FB,
0B,
06,
02,
F1,
09,
03,
04,
F6,
F6,
FF,
F9,
05,
00,
FC,
F8,
00,
EF,
07,
FB,
F8,
05,
03,
09,
02,
FE,
FF,
04,
03,
00,
FC,
09,
01,
FC,
F8,
06,
04,
FB,
01,
09,
04,
F9,
F4,
0A,
06,
00,
06,
FB,
F9,
03,
04,
FC,
F9,
09,
05,
FC,
03,
FB,
02,
07,
03,
FD,
00,
F5,
FB,
F9,
06,
06,
08,
10,
02,
04,
F9,
FC,
FE,
06,
FF,
06,
02,
FD,
02,
02,
02,
FF,
FE,
FA,
01,
EF,
F4,
FF,
FC,
04,
04,
02,
07,
08,
02,
02,
FC,
03,
FD,
FD,
FC,
FF,
06,
FC,
0B,
06,
07,
FD,
03,
09,
00,
02,
F7,
0A,
01,
07,
FC,
FC,
02,
07,
00,
FC,
FE,
04,
00,
02,
01,
07,
0A,
F9,
FE,
02,
FA,
FC,
00,
FD,
FA,
03,
0A,
00,
01,
01,
F9,
07,
03,
0A,
03,
03,
F9,
06,
00,
FF,
01,
FF,
F5,
FA,
06,
FA,
06,
08,
FC,
FC,
05,
FA,
07,
F7,
06,
0B,
02,
05,
0C,
02,
F6,
FE,
03,
FC,
06,
0A,
03,
00,
00,
EC,
04,
FB,
FF,
00,
03,
05,
02,
13,
FC,
02,
03,
06,
FF,
03,
02,
FD,
00,
06,
F9,
FD,
06,
00,
03,
F7,
FE,
02,
00,
FD,
02,
FF,
06,
FD,
05,
02,
09,
FF,
01,
F9,
00,
09,
F4,
F9,
02,
FA,
02,
03,
FB,
F9,
03,
FE,
08,
FA,
04,
08,
05,
FD,
FB,
FB,
04,
FF,
FD,
FE,
FE,
00,
01,
0B,
02,
02,
01,
09,
07,
FD,
07,
0B,
0A,
05,
03,
0E,
F7,
FB,
06,
FF,
FC,
05,
FA,
01,
0C,
08,
0A,
04,
09,
02,
0A,
F8,
FF,
FC,
02,
09,
07,
10,
FD,
0C,
FD,
FE,
FB,
01,
FC,
04,
F8,
FD,
16,
FE,
FD,
01,
FB,
F1,
00,
0C,
FF,
02,
FF,
08,
01,
07,
FF,
FB,
FC,
FD,
04,
02,
01,
FA,
F7,
FC,
FD,
07,
06,
05,
01,
00,
FE,
FE,
FB,
03,
00,
F1,
FB,
F8,
03,
FD,
F7,
04,
02,
01,
03,
02,
07,
07,
04,
07,
FF,
FE,
02,
07,
FE,
FB,
05,
00,
02,
F3,
FD,
07,
05,
FC,
FF,
00,
04,
FA,
FF,
03,
FF,
F0,
FC,
05,
FD,
05,
FC,
F9,
03,
08,
04,
FC,
06,
00,
FE,
F9,
04,
F5,
08,
FF,
FE,
FA,
02,
FC,
08,
05,
FD,
FF,
F9,
FF,
05,
04,
04,
04,
09,
FE,
02,
03,
FB,
FD,
FB,
FF,
04,
FE,
09,
FD,
F8,
02,
09,
01,
FC,
08,
01,
FA,
05,
03,
05,
FB,
04,
00,
F9,
FE,
F9,
03,
04,
FF,
07,
04,
FC,
01,
04,
0A,
FE,
08,
FD,
F9,
08,
FC,
FB,
04,
06,
F9,
02,
03,
FA,
F7,
04,
01,
F6,
FD,
FE,
03,
09,
FE,
F9,
05,
02,
04,
F2,
02,
FC,
F5,
FD,
F9,
05,
FB,
07,
F8,
09,
09,
FF,
05,
FD,
03,
02,
00,
01,
0A,
01,
01,
FB,
0C,
00,
FF,
03,
FC,
03,
02,
04,
F6,
FA,
03,
02,
FB,
00,
FB,
07,
09,
FC,
03,
FD,
0A,
FE,
0A,
0B,
03,
FE,
04,
03,
FD,
04,
06,
FA,
01,
04,
07,
05,
05,
00,
03,
00,
09,
02,
04,
03,
05,
FD,
05,
F3,
02,
03,
FD,
FE,
01,
04,
00,
01,
00,
03,
EE,
FF,
FC,
FD,
06,
05,
09,
FB,
01,
07,
00,
FD,
06,
02,
03,
FF,
05,
FF,
FE,
01,
FA,
05,
03,
04,
F9,
FF,
02,
FA,
FB,
01,
FB,
00,
03,
FB,
FF,
08,
FE,
FE,
02,
F4,
0A,
02,
F9,
04,
04,
07,
02,
05,
F9,
03,
F9,
FB,
04,
FD,
04,
F4,
02,
04,
01,
FC,
FB,
01,
0D,
FA,
0B,
04,
FF,
FE,
03,
FD,
FE,
FE,
05,
FD,
06,
F5,
00,
0A,
03,
01,
04,
FB,
02,
07,
FC,
06,
06,
08,
FC,
F5,
FC,
06,
FB,
FD,
00,
03,
F8,
05,
01,
FD,
EF,
02,
F8,
FE,
04,
05,
07,
FC,
04,
FD,
09,
02,
FA,
00,
04,
05,
FC,
0A,
F9,
01,
F3,
FE,
FC,
00,
05,
FB,
FE,
06,
00,
01,
03,
02,
FE,
00,
02,
FF,
FC,
F7,
FD,
F7,
04,
09,
08,
03,
04,
06,
06,
FE,
00,
FD,
FC,
F5,
FF,
00,
08,
0A,
09,
04,
FE,
FD,
FF,
FF,
12,
FF,
0A,
04,
FD,
06,
FF,
07,
02,
09,
0A,
FB,
FD,
F3,
FF,
04,
01,
FF,
02,
FE,
FE,
FE,
F9,
04,
00,
FE,
05,
02,
03,
FA,
FF,
FD,
04,
01,
02,
FB,
F8,
0C,
03,
03,
04,
06,
FE,
FE,
FD,
00,
FB,
FD,
FC,
01,
FF,
08,
08,
08,
F8,
03,
FA,
03,
F2,
06,
FF,
FB,
04,
FA,
03,
FF,
03,
0B,
01,
02,
0A,
FE,
05,
FD,
0C,
F9,
05,
FE,
07,
03,
03,
FF,
FD,
05,
F6,
FA,
06,
F6,
04,
09,
09,
06,
04,
0B,
F4,
01,
05,
05,
00,
FD,
03,
05,
F8,
03,
03,
FE,
08,
FC,
FC,
FA,
F7,
05,
05,
F2,
04,
03,
FC,
FF,
01,
01,
00,
FE,
FB,
08,
FD,
01,
FA,
01,
FD,
06,
FF,
01,
08,
FB,
FF,
04,
01,
01,
FE,
08,
0B,
02,
03,
06,
04,
03,
02,
FF,
05,
FF,
FD,
01,
02,
03,
00,
F8,
05,
01,
FB,
02,
08,
08,
F1,
FB,
FD,
06,
FE,
FE,
FE,
FF,
05,
0C,
FE,
FE,
08,
03,
00,
0E,
F3,
00,
FC,
F5,
03,
05,
03,
08,
FC,
F5,
09,
FC,
02,
0A,
07,
FF,
FF,
03,
FD,
04,
01,
FC,
F9,
FE,
F9,
F6,
F4,
FF,
03,
FF,
00,
05,
FA,
00,
00,
0B,
00,
FE,
FE,
02,
04,
02,
0E,
03,
01,
00,
07,
00,
08,
04,
01,
FD,
EE,
04,
FD,
03,
01,
08,
04,
F5,
03,
0A,
00,
F9,
0A,
06,
05,
05,
06,
0A,
07,
05,
04,
05,
FF,
F4,
03,
FD,
FF,
FC,
FF,
FC,
0D,
05,
05,
08,
F9,
07,
02,
FF,
03,
FD,
03,
FB,
FE,
07,
FF,
06,
F9,
0B,
0F,
04,
01,
03,
0E,
07,
05,
FF,
FD,
F5,
FE,
03,
02,
03,
12,
FB,
02,
02,
FB,
01,
F3,
05,
FF,
FA,
08,
FA,
06,
05,
02,
01,
02,
0E,
03,
02,
03,
01,
03,
03,
03,
FF,
FE,
FF,
FA,
FC,
01,
04,
0B,
05,
06,
F6,
FE,
FF,
04,
03,
02,
04,
F7,
FC,
05,
03,
03,
06,
0B,
07,
FA,
02,
0B,
01,
FE,
FE,
FE,
FA,
02,
02,
0C,
F9,
02,
F9,
FD,
03,
FC,
FE,
FB,
02,
FD,
FB,
05,
FC,
03,
FE,
04,
FE,
FF,
00,
F9,
01,
FB,
02,
FD,
FD,
FC,
00,
01,
00,
FD,
FF,
FD,
FB,
00,
04,
F9,
01,
FE,
FF,
03,
01,
01,
FC,
FF,
F8,
05,
02,
02,
F8,
00,
01,
FD,
03,
08,
FC,
03,
F8,
08,
06,
05,
08,
FE,
05,
FC,
02,
09,
01,
F1,
04,
01,
F9,
FB,
03,
FD,
FB,
FF,
04,
05,
F9,
00,
FE,
FC,
03,
03,
FB,
01,
FC,
FE,
04,
FF,
F6,
F9,
FC,
01,
FD,
02,
FC,
01,
05,
FE,
FA,
00,
03,
05,
FB,
F4,
01,
FC,
02,
FA,
04,
FB,
00,
01,
FA,
02,
04,
FB,
FE,
02,
02,
F8,
FD,
04,
09,
FB,
FE,
05,
F7,
02,
04,
04,
FA,
05,
F7,
F8,
01,
06,
FE,
07,
FE,
FD,
04,
F9,
FF,
08,
FA,
F2,
02,
FF,
FE,
02,
FB,
09,
FF,
05,
01,
01,
09,
07,
02,
FD,
FF,
03,
06,
04,
06,
FB,
03,
FF,
05,
FC,
03,
FF,
03,
01,
05,
00,
06,
03,
FD,
02,
FD,
01,
02,
08,
FC,
09,
08,
01,
FB,
FF,
FE,
FB,
03,
FB,
18,
01,
FE,
04,
FC,
FF,
03,
02,
FA,
09,
03,
07,
FC,
0A,
06,
FD,
05,
FA,
FD,
04,
FF,
08,
04,
FC,
FF,
07,
02,
01,
0D,
FE,
FF,
00,
FC,
00,
01,
05,
02,
FC,
00,
FF,
FE,
03,
01,
07,
F0,
F6,
04,
05,
FF,
FB,
03,
EE,
04,
FC,
08,
00,
03,
06,
FE,
02,
FC,
03,
04,
06,
04,
FF,
FA,
F7,
06,
FD,
05,
0A,
F9,
09,
F8,
FF,
FD,
FE,
00,
01,
01,
00,
00,
06,
FB,
09,
FD,
FB,
02,
03,
02,
08,
05,
00,
08,
FF,
FD,
FD,
F6,
FF,
08,
F9,
FD,
FC,
F8,
02,
02,
03,
FE,
F0,
FE,
02,
FB,
FB,
04,
07,
08,
FC,
FC,
FC,
FE,
00,
FC,
FE,
0A,
F2,
01,
01,
FA,
01,
FC,
0C,
FB,
FA,
00,
07,
01,
FB,
0E,
05,
01,
F2,
03,
04,
07,
05,
FC,
FC,
F7,
04,
04,
05,
FC,
06,
06,
0F,
07,
F7,
08,
FC,
11,
03,
FC,
07,
08,
FA,
FD,
05,
06,
FB,
08,
FD,
03,
F8,
02,
FB,
02,
05,
06,
0A,
FE,
FC,
FE,
FC,
02,
03,
FF,
0D,
08,
FB,
FB,
0C,
FD,
FF,
02,
F7,
0A,
F9,
00,
F6,
F9,
04,
EC,
FB,
01,
02,
FE,
01,
05,
01,
05,
08,
F9,
00,
0B,
00,
F4,
FD,
F9,
01,
03,
02,
02,
01,
03,
04,
FF,
FF,
F9,
07,
01,
01,
FE,
05,
FC,
FD,
FE,
02,
F3,
08,
ED,
FD,
FD,
F6,
03,
00,
05,
F8,
FE,
FE,
FF,
01,
04,
05,
02,
07,
FE,
01,
02,
FF,
FB,
02,
07,
0A,
FE,
FE,
FB,
08,
FA,
01,
01,
02,
02,
F6,
FA,
F7,
03,
08,
F6,
00,
0D,
04,
0B,
FE,
08,
07,
F8,
07,
03,
01,
FF,
0B,
03,
00,
FD,
FC,
06,
07,
01,
0F,
01,
F4,
FE,
0A,
01,
02,
03,
FF,
FC,
00,
04,
F9,
FF,
F2,
05,
02,
F5,
03,
01,
FF,
00,
06,
FC,
04,
0A,
FE,
FB,
FD,
FB,
F5,
00,
FE,
FF,
F2,
01,
FE,
05,
FF,
03,
01,
FB,
04,
08,
06,
00,
07,
FA,
FB,
05,
05,
FF,
FB,
FF,
FE,
EF,
FF,
FC,
05,
FD,
0B,
FB,
0A,
03,
0A,
F9,
F7,
09,
01,
00,
0C,
03,
02,
FF,
01,
FD,
F8,
FF,
EA,
F4,
FC,
03,
01,
07,
FB,
FC,
0E,
00,
FC,
FE,
FD,
FF,
01,
FF,
05,
0A,
01,
09,
0B,
0B,
FD,
F0,
F8,
F9,
00,
0B,
05,
06,
07,
F5,
00,
FA,
F7,
FE,
08,
FD,
FC,
03,
FE,
FC,
FD,
06,
02,
05,
FB,
FF,
04,
FB,
00,
01,
FE,
FC,
00,
02,
FE,
FE,
FF,
07,
03,
FC,
05,
06,
FE,
04,
FB,
03,
FC,
05,
07,
FF,
0D,
FC,
05,
F8,
03,
FF,
04,
04,
07,
FA,
F9,
05,
06,
FA,
00,
F4,
06,
08,
05,
F7,
0B,
04,
03,
05,
FE,
05,
02,
06,
04,
FA,
F9,
0C,
F4,
01,
01,
FF,
08,
09,
FC,
03,
FC,
03,
08,
FF,
05,
02,
06,
FB,
00,
05,
FE,
FE,
F8,
FD,
01,
03,
FF,
FC,
02,
04,
F9,
04,
FB,
04,
03,
F9,
FE,
FD,
F1,
06,
FD,
FA,
FE,
FE,
09,
F7,
01,
FC,
FF,
03,
FE,
02,
F7,
09,
01,
03,
FD,
01,
F5,
01,
07,
F9,
F8,
FC,
01,
07,
FD,
FC,
05,
09,
FF,
02,
05,
02,
05,
FD,
03,
06,
04,
05,
FE,
01,
FA,
06,
0A,
FA,
FE,
07,
08,
F5,
01,
F7,
08,
FF,
00,
02,
01,
FE,
08,
0C,
06,
0B,
FB,
FA,
FC,
01,
FA,
FE,
FD,
FC,
06,
06,
0A,
03,
F5,
02,
FF,
FF,
FF,
FE,
07,
FE,
FC,
FA,
FE,
02,
FB,
F6,
FD,
01,
FD,
FF,
08,
FD,
FA,
FD,
FC,
F7,
04,
07,
FF,
FF,
01,
00,
07,
07,
06,
0E,
07,
F9,
FC,
FD,
FE,
FC,
02,
FF,
02,
FD,
F3,
08,
02,
07,
FC,
01,
03,
FD,
FE,
FD,
FB,
F7,
06,
F5,
FA,
08,
FB,
05,
FD,
FB,
FB,
FB,
F4,
FD,
FB,
FD,
FE,
08,
FC,
FC,
F2,
04,
00,
04,
04,
05,
05,
04,
04,
08,
00,
02,
FE,
01,
FF,
FE,
02,
FB,
07,
0B,
06,
FA,
01,
FD,
02,
08,
05,
FE,
04,
FF,
05,
00,
00,
00,
08,
F7,
01,
FE,
F4,
FB,
07,
FB,
02,
FB,
FC,
00,
01,
00,
08,
01,
FB,
00,
FC,
06,
FB,
03,
03,
FF,
04,
01,
04,
05,
FF,
01,
04,
FC,
FF,
F9,
FF,
01,
FE,
07,
FC,
07,
F5,
04,
FD,
05,
00,
F7,
FA,
FD,
FE,
03,
00,
FD,
07,
02,
06,
F7,
F3,
05,
FE,
0A,
F7,
FD,
06,
03,
FF,
03,
FB,
FE,
02,
F6,
09,
04,
00,
FB,
03,
FD,
FF,
06,
05,
F5,
00,
05,
FD,
07,
FC,
FC,
FB,
F3,
04,
FA,
FA,
00,
FD,
EE,
FE,
F7,
FD,
FE,
06,
FD,
FB,
02,
FC,
02,
FD,
FF,
FE,
FB,
FE,
09,
F8,
FF,
0D,
FF,
06,
05,
04,
04,
05,
FC,
0B,
03,
FC,
FB,
FD,
04,
00,
04,
0A,
02,
00,
06,
FF,
F9,
FC,
05,
02,
FF,
FA,
03,
02,
01,
05,
F4,
03,
FE,
FD,
FE,
0E,
00,
FE,
FC,
FA,
FE,
0A,
00,
FB,
F5,
FD,
FC,
F9,
FF,
FD,
FF,
FD,
FE,
03,
00,
FA,
F8,
FE,
FC,
F7,
09,
FD,
FB,
02,
02,
03,
01,
FE,
FF,
FF,
FE,
F9,
FD,
FF,
FA,
00,
F9,
05,
02,
FE,
05,
FC,
03,
FD,
0C,
09,
F6,
06,
FC,
01,
05,
03,
FE,
0D,
03,
01,
FD,
0A,
07,
03,
FF,
07,
FE,
F9,
06,
FF,
F9,
02,
FD,
01,
02,
FE,
04,
FE,
FF,
FB,
09,
06,
01,
03,
01,
FF,
02,
0D,
00,
03,
F9,
03,
0C,
01,
08,
FF,
FD,
FD,
FA,
0A,
04,
03,
FD,
F8,
FE,
07,
FF,
06,
F9,
09,
FA,
04,
01,
FD,
02,
03,
FF,
03,
FB,
F4,
03,
00,
01,
06,
FD,
07,
00,
09,
01,
00,
F8,
0A,
06,
04,
FA,
FF,
04,
03,
FA,
FF,
05,
F7,
05,
00,
FB,
F3,
FE,
00,
03,
00,
00,
03,
04,
FF,
07,
08,
01,
01,
05,
03,
FD,
04,
FE,
FA,
02,
FF,
FA,
01,
F9,
F9,
0B,
07,
FC,
07,
0A,
FB,
FE,
F9,
03,
FE,
0B,
FD,
04,
02,
00,
01,
FE,
FA,
FE,
07,
0C,
00,
02,
FC,
0A,
FE,
F9,
FD,
07,
F4,
08,
00,
05,
F3,
F4,
03,
FC,
FC,
FD,
01,
F8,
08,
01,
FC,
08,
07,
02,
06,
FE,
08,
00,
F8,
04,
0B,
FE,
08,
FB,
FF,
05,
06,
03,
06,
05,
02,
00,
09,
0B,
FE,
04,
05,
FA,
06,
05,
08,
F9,
00,
00,
01,
04,
FF,
0C,
FE,
04,
FA,
0B,
F8,
F8,
F8,
00,
FA,
04,
FE,
FD,
F8,
03,
FE,
F8,
09,
FF,
FF,
00,
01,
02,
00,
EE,
01,
FF,
09,
FD,
08,
F5,
00,
02,
F7,
FE,
FE,
F8,
F5,
FA,
FD,
F8,
FA,
04,
FE,
06,
05,
FB,
F8,
F5,
FB,
FD,
00,
04,
03,
F6,
00,
F9,
09,
FC,
03,
FA,
FC,
FF,
FC,
03,
FC,
00,
FE,
F7,
FC,
0B,
FD,
FD,
FE,
07,
FE,
03,
FF,
06,
02,
F2,
0A,
0E,
FE,
08,
FC,
04,
F5,
FE,
18,
FC,
00,
FD,
FF,
FE,
03,
05,
FB,
FE,
01,
F9,
FF,
FA,
04,
F9,
FD,
06,
06,
FA,
06,
00,
F5,
01,
02,
00,
FC,
02,
04,
F8,
FC,
FC,
FD,
FD,
F8,
FC,
0C,
03,
FC,
EF,
01,
02,
01,
F9,
F7,
03,
F6,
02,
01,
06,
05,
00,
01,
FB,
07,
08,
04,
FB,
05,
F2,
08,
00,
04,
FB,
F4,
F9,
FC,
FE,
FF,
FB,
00,
FF,
04,
FB,
04,
0D,
03,
FE,
0D,
04,
04,
FF,
00,
FD,
00,
FC,
00,
05,
FE,
FA,
01,
F8,
01,
03,
F7,
0B,
00,
FA,
0B,
F9,
02,
07,
FB,
FD,
FC,
FE,
FF,
FF,
0C,
0E,
06,
F3,
07,
00,
FD,
FE,
0C,
05,
06,
03,
18,
05,
03,
07,
F8,
FF,
FB,
FD,
FE,
F5,
FF,
01,
05,
08,
02,
FE,
08,
F9,
05,
00,
FA,
02,
FE,
03,
05,
07,
08,
F8,
FB,
03,
FD,
FB,
08,
03,
02,
08,
FC,
04,
00,
0C,
00,
F9,
F3,
02,
ED,
F9,
FB,
FC,
FA,
03,
FC,
FF,
09,
FD,
FA,
FE,
FF,
F9,
00,
04,
03,
F9,
F8,
FF,
FB,
01,
FB,
02,
FF,
FC,
FF,
F7,
F7,
02,
FC,
00,
FF,
FB,
FF,
00,
00,
FD,
FB,
04,
F9,
FB,
FC,
00,
01,
01,
FB,
FB,
FB,
04,
00,
FE,
01,
FE,
02,
FB,
FC,
FC,
03,
FE,
FF,
FB,
FF,
FE,
FE,
00,
06,
FE,
FF,
FE,
F7,
04,
FF,
03,
FC,
F9,
FD,
02,
00,
03,
01,
FC,
FB,
04,
02,
05,
03,
FD,
FB,
00,
FE,
F8,
03,
F8,
06,
FF,
FE,
02,
FF,
FF,
FD,
04,
FA,
FF,
FF,
F9,
FB,
F8,
FC,
FB,
02,
00,
F9,
F9,
00,
03,
05,
01,
FC,
FE,
FB,
FB,
FD,
FD,
FC,
04,
FE,
FB,
FE,
FD,
02,
FE,
FD,
00,
FF,
F7,
09,
FD,
F0,
06,
0C,
06,
FB,
06,
FA,
0A,
FB,
FB,
06,
FC,
FD,
FD,
02,
02,
02,
FD,
02,
09,
09,
FF,
03,
FF,
00,
00,
00,
FD,
FB,
FA,
FD,
06,
0F,
F9,
02,
0D,
F9,
FB,
03,
05,
FD,
09,
00,
0D,
FE,
0B,
01,
00,
00,
0A,
FD,
03,
03,
04,
F3,
02,
04,
03,
F8,
03,
FD,
00,
FB,
07,
06,
03,
FD,
08,
FC,
02,
FF,
02,
07,
FE,
FF,
08,
04,
05,
00,
FC,
04,
02,
FA,
F3,
F4,
04,
05,
F9,
FF,
FB,
04,
03,
01,
F8,
09,
F7,
04,
EE,
00,
09,
0B,
06,
09,
0B,
FF,
07,
FB,
00,
03,
F8,
05,
06,
09,
04,
FF,
02,
09,
07,
FD,
07,
FE,
FD,
F9,
00,
01,
03,
05,
0D,
04,
FF,
02,
FB,
F8,
FF,
02,
FC,
03,
07,
07,
FA,
03,
FC,
FB,
03,
FC,
03,
01,
03,
FF,
FC,
04,
F8,
06,
07,
02,
F9,
01,
07,
08,
0A,
08,
01,
06,
FA,
03,
00,
02,
04,
01,
05,
FC,
FA,
F8,
FD,
0A,
FF,
00,
F9,
09,
FD,
0F,
00,
05,
FD,
02,
02,
02,
01,
03,
F6,
02,
FC,
F8,
04,
F9,
F8,
04,
F8,
01,
FC,
06,
00,
03,
0A,
05,
FA,
01,
00,
FC,
01,
0A,
FD,
06,
FA,
08,
04,
08,
08,
FF,
02,
F7,
02,
00,
F9,
FD,
0A,
03,
FE,
00,
02,
0A,
06,
05,
FC,
04,
F8,
00,
F8,
FA,
08,
EC,
03,
02,
08,
FC,
FB,
FD,
FE,
F9,
00,
03,
03,
03,
00,
FE,
FE,
01,
0A,
FD,
08,
11,
FD,
07,
01,
03,
05,
FE,
04,
05,
00,
FE,
FD,
F9,
FA,
08,
FF,
07,
FC,
FE,
FC,
02,
FD,
07,
02,
FF,
FA,
FC,
FC,
00,
FE,
00,
03,
F2,
06,
01,
FA,
FE,
01,
F8,
FF,
FB,
F1,
FF,
07,
03,
05,
FD,
F5,
08,
F3,
FE,
FD,
02,
08,
01,
FE,
FC,
00,
F2,
FB,
FA,
FD,
F8,
F2,
08,
FF,
0B,
FE,
05,
01,
00,
05,
02,
02,
F6,
F7,
F3,
F6,
02,
07,
00,
02,
01,
01,
08,
FB,
07,
FF,
FE,
0E,
FA,
07,
00,
10,
F9,
FA,
06,
F0,
03,
04,
FA,
02,
03,
01,
02,
07,
FD,
05,
09,
F7,
0D,
04,
01,
F8,
FD,
FD,
0D,
00,
FC,
FC,
12,
02,
FF,
0C,
FA,
02,
01,
04,
F8,
F9,
FB,
00,
F8,
02,
04,
FF,
FE,
02,
FB,
FA,
FC,
04,
07,
08,
03,
09,
03,
FC,
02,
FB,
0C,
01,
03,
02,
07,
02,
05,
08,
F9,
04,
FA,
FB,
FD,
00,
08,
05,
FD,
00,
0A,
02,
08,
08,
02,
FF,
11,
FE,
01,
06,
F8,
FD,
F8,
05,
FB,
FF,
0E,
07,
08,
00,
FF,
00,
01,
02,
02,
03,
00,
FA,
00,
FD,
01,
03,
08,
07,
FB,
01,
04,
FD,
08,
FE,
FF,
FB,
F8,
FA,
00,
FF,
03,
FB,
F8,
0B,
F9,
FF,
00,
07,
FD,
FB,
FF,
00,
00,
0D,
FD,
02,
FA,
00,
FF,
ED,
03,
FC,
FB,
04,
FD,
FC,
09,
00,
FB,
04,
00,
F5,
0C,
01,
F8,
F7,
FF,
F6,
01,
08,
FE,
05,
01,
05,
05,
06,
05,
FF,
04,
FE,
01,
0C,
FD,
FA,
FB,
08,
F3,
F5,
05,
FC,
05,
02,
06,
FC,
F3,
FC,
01,
FC,
00,
05,
FE,
FF,
00,
F3,
F8,
04,
04,
F6,
05,
03,
FB,
FC,
09,
FC,
00,
01,
07,
03,
FA,
02,
03,
F3,
FF,
00,
FB,
FD,
FF,
FF,
05,
F8,
0D,
FC,
05,
0D,
FC,
06,
02,
05,
07,
FE,
FD,
06,
06,
FD,
FE,
FB,
03,
0C,
06,
FE,
07,
05,
FE,
00,
FC,
FB,
02,
02,
FB,
01,
FF,
FE,
F9,
00,
F8,
05,
F0,
FE,
05,
03,
03,
FD,
F3,
01,
F8,
0B,
07,
FA,
FF,
03,
03,
01,
00,
FC,
06,
09,
04,
03,
06,
F6,
FF,
10,
10,
F4,
FF,
03,
0A,
FF,
FF,
F8,
02,
02,
F4,
FB,
FE,
04,
F4,
F5,
F6,
FA,
FF,
03,
06,
FE,
F5,
00,
02,
0A,
FB,
0B,
FE,
02,
02,
FE,
04,
F8,
F2,
FB,
06,
07,
FA,
01,
FD,
FE,
F6,
06,
0C,
FC,
FA,
F9,
02,
02,
0C,
0A,
FF,
FF,
FF,
04,
F4,
FA,
FF,
FC,
FB,
02,
05,
04,
FD,
F9,
09,
05,
FF,
F5,
F9,
09,
06,
00,
02,
F6,
FD,
FB,
F8,
FD,
01,
04,
06,
00,
FE,
08,
0B,
FA,
04,
FF,
F5,
06,
00,
02,
01,
FE,
FC,
FE,
03,
01,
F7,
05,
02,
02,
FC,
00,
00,
F5,
05,
03,
00,
02,
F9,
FA,
01,
02,
0D,
00,
0B,
0B,
FA,
FF,
08,
05,
F9,
04,
FF,
09,
04,
05,
FC,
06,
FE,
0A,
01,
FC,
04,
FD,
FA,
FB,
F9,
FF,
0F,
07,
06,
12,
FC,
05,
FB,
03,
FC,
00,
F9,
06,
FE,
F4,
07,
FA,
FD,
01,
0D,
01,
10,
00,
00,
01,
01,
08,
F4,
FC,
00,
FD,
FA,
FB,
08,
FE,
FD,
F5,
0C,
FA,
0B,
FE,
08,
FD,
FF,
03,
05,
02,
F8,
0C,
F9,
FE,
06,
F7,
08,
FE,
09,
FB,
FB,
03,
FE,
FF,
00,
F1,
0A,
02,
01,
FB,
FB,
04,
02,
06,
0B,
01,
F9,
06,
06,
09,
FD,
05,
FC,
F7,
03,
FA,
F5,
08,
F8,
FB,
05,
FF,
04,
FD,
03,
04,
02,
F9,
FF,
10,
08,
FE,
FA,
F9,
04,
03,
FC,
FC,
09,
07,
FD,
0A,
08,
04,
05,
01,
0C,
05,
0E,
FA,
FF,
FD,
F6,
FB,
08,
03,
FE,
01,
FF,
F1,
FE,
02,
01,
FB,
FB,
0B,
FC,
FB,
02,
F2,
FD,
04,
01,
01,
08,
05,
FF,
FF,
FC,
08,
0B,
FD,
F8,
02,
03,
FE,
FE,
FC,
FA,
F8,
09,
F2,
06,
0A,
FD,
FF,
05,
FE,
04,
01,
03,
09,
03,
0A,
03,
FF,
FA,
EF,
08,
FB,
02,
03,
09,
03,
04,
FC,
0E,
05,
FE,
F6,
FD,
04,
00,
07,
0E,
FA,
02,
FE,
04,
03,
FA,
01,
0A,
08,
FB,
FA,
00,
0A,
F8,
F8,
FA,
06,
FE,
05,
F8,
F7,
FF,
FC,
01,
07,
07,
FB,
02,
02,
F6,
FD,
05,
FC,
EC,
07,
04,
01,
09,
0A,
FB,
FD,
0A,
03,
01,
02,
FA,
03,
F8,
F8,
09,
03,
FA,
08,
06,
FC,
FE,
FF,
00,
01,
FE,
F2,
0C,
01,
03,
06,
07,
F6,
08,
FE,
08,
01,
00,
04,
05,
07,
FF,
FC,
FB,
FC,
02,
FC,
05,
00,
FC,
09,
FE,
00,
08,
FA,
01,
05,
FF,
FB,
FE,
FA,
FA,
05,
0A,
08,
FD,
04,
04,
F9,
01,
F8,
00,
FC,
03,
0A,
FF,
03,
FB,
04,
03,
05,
FE,
05,
F1,
06,
F5,
04,
FE,
FF,
01,
FE,
FD,
FB,
02,
07,
03,
FF,
06,
FE,
FF,
FE,
FE,
FB,
08,
01,
FF,
F9,
FB,
04,
09,
02,
02,
FE,
07,
F9,
01,
05,
02,
00,
0A,
FB,
FA,
FC,
FC,
FC,
FE,
05,
FD,
F5,
F9,
F7,
00,
00,
FA,
FE,
FF,
FE,
07,
08,
FE,
FF,
FE,
FD,
03,
FE,
FE,
07,
FF,
F0,
FE,
06,
01,
FB,
06,
FA,
FB,
FC,
01,
00,
FB,
05,
F8,
FB,
01,
02,
02,
F3,
08,
FF,
01,
F3,
02,
06,
05,
FC,
06,
FE,
F8,
00,
02,
FA,
FC,
03,
FB,
02,
FF,
FA,
07,
05,
06,
03,
04,
FF,
01,
08,
F9,
07,
F9,
06,
FD,
06,
FE,
F9,
05,
04,
02,
FF,
04,
00,
FE,
FB,
01,
05,
03,
08,
FF,
FA,
10,
FD,
02,
03,
F8,
08,
FB,
FB,
06,
FF,
02,
F7,
FD,
FA,
03,
FF,
09,
00,
09,
01,
00,
FE,
03,
05,
01,
02,
FE,
F6,
01,
05,
FC,
00,
02,
FE,
0D,
05,
06,
F2,
F4,
FC,
FF,
F4,
06,
FE,
02,
01,
04,
F6,
07,
09,
F8,
07,
F5,
07,
F6,
0D,
FC,
FA,
06,
FF,
05,
03,
07,
09,
0B,
0B,
02,
0A,
05,
FD,
05,
01,
09,
F9,
00,
05,
01,
05,
FD,
FF,
03,
03,
F8,
00,
08,
00,
09,
F5,
FD,
08,
0D,
08,
FE,
F5,
FF,
00,
06,
07,
FA,
02,
0F,
F8,
FE,
F9,
FB,
01,
FF,
FE,
FB,
FC,
F6,
04,
FC,
FC,
05,
04,
FA,
FD,
FF,
03,
FC,
09,
F4,
F7,
06,
00,
05,
02,
F3,
FA,
03,
FC,
08,
01,
10,
FC,
06,
FA,
0E,
04,
00,
00,
F7,
08,
02,
FC,
FE,
06,
FF,
00,
FE,
FF,
0B,
FD,
FE,
FA,
F9,
03,
07,
FE,
01,
FF,
07,
01,
FC,
07,
02,
FD,
F7,
F6,
08,
FB,
F4,
FF,
F7,
FF,
01,
FF,
05,
04,
F1,
FD,
03,
10,
05,
F0,
F9,
F8,
FD,
00,
04,
02,
03,
08,
FB,
F9,
09,
FB,
09,
FE,
04,
FC,
07,
FE,
05,
02,
FD,
06,
02,
03,
00,
FE,
07,
03,
F1,
FE,
07,
F9,
04,
FA,
03,
FD,
0A,
FA,
FE,
00,
FF,
FF,
FF,
03,
00,
03,
00,
01,
FE,
04,
00,
F6,
FE,
03,
F6,
08,
FF,
FF,
01,
FE,
02,
FD,
01,
FF,
00,
06,
01,
01,
06,
07,
F8,
00,
FD,
03,
F2,
09,
FC,
06,
FF,
08,
05,
FE,
03,
FA,
0E,
05,
0D,
FE,
F9,
FC,
FC,
03,
0A,
04,
FD,
09,
02,
01,
03,
02,
04,
0E,
FB,
0E,
FF,
FD,
04,
FD,
0A,
02,
09,
FC,
05,
FF,
FC,
00,
01,
FD,
FD,
03,
06,
F4,
FA,
08,
FE,
FB,
F8,
FB,
04,
FE,
08,
FD,
FB,
02,
05,
02,
09,
FC,
01,
0B,
00,
06,
FF,
F2,
FC,
FC,
02,
FE,
FF,
FF,
03,
F7,
06,
FE,
FE,
09,
00,
03,
06,
09,
03,
03,
0B,
F5,
02,
FF,
01,
FE,
01,
02,
07,
0A,
FC,
0B,
01,
01,
03,
F4,
FD,
05,
FE,
02,
FF,
FE,
02,
FA,
03,
FC,
FB,
09,
FA,
FA,
02,
03,
05,
05,
FD,
08,
01,
FA,
09,
06,
FB,
FE,
07,
FE,
01,
FD,
FA,
03,
06,
04,
0D,
05,
01,
FA,
FB,
03,
06,
03,
04,
FD,
05,
F6,
06,
FB,
08,
06,
05,
FA,
01,
FE,
F0,
03,
03,
06,
FF,
FA,
FC,
FD,
0A,
01,
FC,
00,
01,
FC,
FB,
08,
04,
FB,
FB,
F9,
00,
04,
07,
04,
01,
05,
02,
01,
FE,
06,
04,
03,
FD,
FE,
FE,
0B,
00,
FE,
FB,
07,
04,
FE,
FC,
FA,
00,
02,
FB,
FF,
FB,
FE,
F7,
08,
04,
05,
FC,
FE,
06,
01,
05,
0A,
04,
FF,
01,
FE,
FD,
06,
07,
F7,
0B,
FE,
06,
02,
02,
0C,
07,
06,
00,
00,
07,
06,
FB,
04,
06,
00,
00,
F9,
FB,
03,
FD,
04,
04,
0C,
F4,
00,
FC,
FF,
01,
02,
07,
08,
F3,
FF,
0A,
FA,
F9,
01,
FE,
FF,
01,
F8,
03,
FF,
04,
00,
03,
FA,
01,
FA,
03,
FF,
FD,
FD,
00,
FD,
05,
F6,
EE,
F5,
FB,
00,
04,
05,
03,
FF,
09,
04,
05,
02,
FE,
0A,
FE,
FC,
00,
FD,
04,
08,
FA,
06,
03,
02,
05,
F5,
F7,
03,
01,
04,
01,
FF,
00,
0C,
01,
0C,
0B,
FA,
F8,
FB,
FC,
FE,
07,
F8,
01,
02,
04,
02,
07,
05,
FB,
FE,
02,
04,
FE,
01,
01,
03,
FF,
F5,
05,
03,
02,
05,
03,
08,
FC,
FE,
FA,
0D,
FA,
FB,
07,
00,
EE,
0C,
05,
FD,
EE,
FF,
FE,
FD,
FF,
FC,
00,
03,
00,
0B,
F5,
05,
0A,
00,
06,
03,
08,
FE,
FF,
FB,
11,
05,
FB,
01,
05,
03,
04,
F3,
0B,
09,
F9,
02,
F7,
02,
F8,
02,
FC,
FB,
04,
03,
03,
FA,
08,
02,
F5,
02,
03,
04,
FF,
03,
03,
06,
06,
05,
FC,
01,
FE,
FA,
FC,
01,
FD,
FF,
FB,
00,
10,
02,
02,
0D,
02,
02,
F4,
F8,
01,
05,
01,
02,
01,
FE,
F9,
FD,
FA,
FC,
05,
FE,
00,
FF,
FB,
FE,
05,
FD,
FF,
FB,
00,
FF,
FD,
02,
00,
FD,
FE,
04,
FE,
FE,
03,
FA,
04,
FF,
FE,
01,
FE,
00,
FE,
05,
FF,
04,
FD,
FC,
F7,
01,
00,
FA,
03,
04,
06,
03,
FA,
FC,
FF,
02,
FE,
FE,
F9,
FD,
02,
FC,
FB,
00,
FF,
04,
04,
01,
00,
F5,
FF,
00,
02,
05,
F9,
04,
FA,
FC,
00,
01,
FD,
FC,
FD,
FB,
03,
FD,
F9,
FF,
04,
01,
02,
FB,
03,
03,
FB,
F9,
05,
FA,
FD,
01,
04,
FF,
FE,
FC,
FD,
F9,
FF,
04,
FA,
03,
FE,
01,
FB,
01,
FF,
FC,
FB,
F8,
FA,
FD,
04,
FE,
03,
FE,
00,
00,
F9,
FD,
01,
04,
FD,
07,
03,
06,
0E,
FE,
0C,
FE,
03,
F4,
FB,
FF,
0F,
03,
FB,
F9,
12,
09,
FE,
02,
00,
01,
FB,
FE,
00,
FA,
05,
FF,
F4,
FC,
FB,
FF,
03,
0A,
04,
08,
FE,
FF,
0C,
05,
06,
FF,
09,
FA,
FB,
F9,
07,
03,
00,
08,
0B,
06,
00,
FD,
FF,
01,
FB,
FC,
01,
FD,
08,
03,
00,
03,
04,
FA,
01,
06,
02,
FF,
0B,
01,
06,
FD,
F0,
06,
FC,
05,
04,
03,
15,
07,
04,
F6,
FF,
FF,
03,
FC,
08,
FD,
F9,
FD,
00,
F8,
F4,
08,
03,
FC,
F0,
00,
FD,
05,
07,
FD,
01,
00,
FE,
07,
05,
FE,
09,
FC,
05,
F7,
05,
01,
0A,
00,
03,
F9,
FD,
03,
FF,
01,
09,
04,
08,
05,
FD,
01,
00,
FD,
04,
FC,
FC,
02,
F8,
00,
FB,
FE,
0A,
05,
08,
FD,
07,
FA,
01,
09,
00,
03,
FF,
FC,
07,
FE,
F5,
00,
03,
FE,
F5,
F7,
FC,
02,
09,
0B,
03,
F8,
08,
06,
FD,
02,
03,
02,
05,
08,
13,
FF,
05,
04,
F6,
03,
FC,
02,
02,
FF,
0A,
02,
02,
08,
02,
FA,
04,
F9,
09,
00,
04,
FC,
FA,
F9,
09,
00,
07,
FC,
FE,
F8,
00,
FD,
0C,
FE,
05,
03,
01,
0D,
FF,
F2,
06,
FE,
FF,
05,
F9,
02,
F5,
F9,
FC,
00,
05,
F9,
04,
F8,
03,
01,
0B,
01,
02,
04,
00,
05,
06,
F9,
06,
04,
00,
FD,
FE,
F4,
FC,
05,
FD,
03,
07,
03,
02,
05,
FA,
FF,
07,
FF,
F5,
FF,
FB,
08,
00,
04,
09,
FC,
FE,
07,
06,
0B,
07,
05,
06,
F7,
FC,
05,
01,
01,
09,
09,
EF,
01,
FD,
04,
F7,
07,
01,
0A,
02,
06,
03,
00,
04,
FB,
01,
0B,
F0,
FF,
FF,
FD,
04,
05,
F9,
FB,
01,
FE,
04,
06,
07,
FF,
01,
FE,
FE,
01,
00,
07,
0A,
F9,
FE,
05,
03,
05,
FC,
F6,
F9,
07,
00,
0A,
00,
01,
08,
07,
02,
0C,
00,
06,
08,
02,
08,
FF,
0A,
07,
0B,
06,
F9,
04,
FF,
FD,
FB,
06,
00,
FB,
F8,
04,
00,
00,
06,
FE,
01,
02,
02,
01,
03,
06,
FF,
0B,
00,
F9,
F9,
FC,
03,
FE,
FE,
02,
02,
FD,
02,
07,
03,
02,
FC,
F6,
02,
00,
01,
06,
04,
F6,
FC,
FF,
03,
07,
FF,
06,
FC,
01,
FF,
03,
FD,
00,
01,
07,
03,
05,
FF,
08,
02,
FE,
03,
0A,
0D,
04,
FF,
FF,
FA,
FA,
09,
FE,
02,
04,
FA,
F6,
04,
00,
FF,
08,
FD,
00,
FA,
FA,
07,
F6,
FA,
0A,
07,
01,
07,
FC,
FC,
FE,
06,
FC,
F3,
07,
FB,
FF,
FB,
FD,
FD,
05,
FC,
F7,
0C,
F0,
07,
FA,
06,
06,
03,
01,
FF,
FE,
F1,
0A,
02,
04,
FB,
F7,
06,
FA,
09,
01,
04,
05,
06,
02,
FC,
FB,
F8,
FD,
FD,
FC,
FB,
04,
FF,
00,
FC,
03,
04,
FE,
FE,
FD,
02,
06,
03,
F8,
FD,
FE,
02,
FC,
F8,
FF,
FD,
01,
FC,
05,
FE,
FC,
05,
06,
FF,
FE,
FC,
F9,
01,
FA,
04,
FD,
03,
00,
FD,
FA,
01,
01,
02,
FA,
FB,
01,
F9,
02,
00,
FC,
00,
03,
FA,
FF,
FA,
FC,
FE,
FE,
03,
FF,
00,
FF,
FE,
FA,
03,
FE,
FB,
FC,
FB,
FE,
FD,
FD,
F9,
FB,
FE,
06,
FC,
FB,
01,
FA,
02,
FF,
FB,
FB,
FD,
FD,
FC,
03,
03,
F9,
05,
02,
FF,
FB,
01,
03,
FD,
06,
FF,
FA,
05,
FF,
00,
FA,
00,
05,
03,
FF,
FC,
01,
01,
FB,
02,
00,
03,
06,
03,
F8,
01,
FC,
05,
FE,
02,
F5,
01,
01,
07,
FE,
06,
02,
FC,
FE,
F2,
00,
01,
05,
FA,
04,
05,
F6,
F5,
00,
F8,
FD,
01,
07,
FE,
FE,
03,
FA,
04,
F3,
F5,
00,
0C,
FA,
02,
F7,
04,
05,
04,
EF,
F3,
F8,
FC,
01,
FA,
FD,
05,
02,
07,
04,
FB,
FA,
08,
03,
F9,
07,
03,
FA,
02,
03,
FF,
0A,
F0,
08,
01,
FB,
F3,
03,
F1,
05,
F9,
03,
08,
FE,
0C,
FE,
07,
0A,
05,
07,
F8,
02,
01,
01,
FE,
04,
04,
FB,
FC,
0A,
09,
F8,
F9,
F7,
FB,
04,
FC,
FF,
FC,
06,
05,
FC,
04,
0A,
11,
00,
02,
FE,
F0,
03,
FD,
FC,
FB,
03,
06,
FB,
00,
01,
FD,
03,
01,
0A,
02,
01,
F7,
FC,
FB,
FC,
FB,
02,
01,
02,
FB,
F6,
07,
FE,
FA,
00,
03,
FE,
06,
FD,
FA,
F7,
FF,
FA,
FB,
04,
05,
03,
04,
FF,
0A,
FE,
09,
FE,
04,
FF,
06,
08,
FD,
01,
FF,
04,
F7,
FA,
0E,
F5,
03,
00,
04,
02,
F6,
FC,
0D,
F5,
00,
FB,
03,
08,
01,
F4,
07,
08,
02,
F8,
06,
FF,
02,
FA,
08,
02,
FE,
06,
02,
01,
FC,
07,
08,
F9,
F9,
09,
03,
FB,
02,
FE,
06,
02,
08,
F6,
08,
0F,
FC,
03,
02,
01,
03,
00,
0A,
06,
02,
04,
00,
FD,
FF,
FA,
FE,
09,
FD,
04,
01,
02,
08,
FF,
05,
F8,
01,
04,
03,
FD,
0A,
02,
F4,
06,
09,
00,
03,
FB,
01,
01,
FF,
00,
03,
FE,
F5,
02,
02,
FF,
FD,
0A,
01,
04,
03,
FF,
FF,
0A,
03,
FD,
03,
01,
FA,
05,
FF,
03,
F8,
00,
09,
FF,
FC,
FF,
01,
FE,
FF,
FB,
03,
FE,
FA,
04,
02,
FD,
FE,
02,
FF,
FA,
F9,
01,
07,
09,
01,
00,
04,
0A,
FD,
FD,
04,
01,
01,
03,
06,
00,
02,
FD,
03,
FA,
FD,
02,
03,
00,
05,
FF,
09,
F8,
04,
02,
08,
F9,
06,
00,
F3,
08,
01,
09,
05,
01,
FE,
02,
FD,
FA,
FF,
F9,
FD,
FA,
FC,
FC,
06,
07,
02,
F5,
03,
00,
FE,
02,
FC,
FD,
FA,
F0,
FC,
03,
FB,
F8,
06,
F0,
EE,
0A,
05,
01,
09,
04,
04,
FC,
FF,
FD,
FF,
08,
FB,
FE,
05,
F5,
01,
06,
07,
FA,
FF,
06,
04,
03,
F7,
0A,
FE,
FC,
10,
FF,
01,
08,
01,
FB,
01,
FF,
FE,
00,
FB,
F9,
00,
FF,
00,
0B,
F6,
06,
02,
00,
FE,
05,
03,
FD,
04,
F9,
06,
06,
04,
FE,
FB,
02,
02,
05,
FD,
04,
FA,
F9,
F7,
09,
FE,
02,
FE,
FA,
07,
05,
04,
00,
06,
05,
F5,
04,
01,
07,
F3,
05,
FF,
FD,
01,
04,
FF,
09,
FD,
F6,
01,
FF,
FB,
02,
0B,
00,
05,
02,
00,
03,
05,
01,
F8,
F8,
FE,
04,
05,
F6,
FE,
F7,
09,
04,
05,
01,
05,
04,
01,
FE,
08,
FF,
00,
04,
08,
04,
00,
FE,
F8,
FB,
FD,
0B,
FD,
01,
01,
FB,
01,
FE,
FE,
05,
08,
FE,
FE,
02,
03,
04,
FF,
05,
FF,
FE,
F6,
03,
FD,
06,
F5,
FE,
FC,
01,
00,
07,
FF,
FA,
08,
FC,
01,
FE,
EC,
02,
FA,
03,
04,
03,
F7,
00,
FD,
04,
01,
06,
FF,
0C,
04,
FC,
FC,
04,
04,
F9,
06,
05,
07,
FE,
07,
FF,
FF,
03,
F8,
F7,
FC,
02,
FE,
00,
FB,
0B,
FC,
03,
01,
0E,
01,
FD,
FD,
EF,
05,
05,
09,
04,
FF,
05,
FD,
F8,
FD,
05,
02,
02,
F8,
FD,
08,
FF,
02,
FF,
00,
FF,
FE,
F7,
0C,
FA,
05,
FC,
FA,
FB,
F8,
FC,
FF,
0A,
FF,
FE,
03,
06,
FC,
00,
0C,
04,
02,
01,
01,
03,
FB,
FE,
02,
FF,
03,
FC,
02,
03,
FD,
FC,
FD,
08,
01,
FE,
10,
FC,
05,
03,
02,
FA,
05,
FB,
FE,
03,
03,
08,
01,
F4,
08,
FA,
FE,
F9,
09,
05,
FF,
00,
04,
07,
07,
0B,
FA,
FC,
FD,
05,
00,
F1,
FF,
03,
02,
06,
FA,
02,
12,
FC,
00,
FF,
02,
FE,
01,
FC,
02,
0C,
09,
FE,
FC,
03,
04,
02,
FF,
07,
00,
05,
FE,
0B,
06,
07,
00,
FD,
F7,
FB,
FF,
FF,
FA,
F9,
FE,
03,
FE,
FF,
FF,
FB,
FC,
F8,
01,
F6,
03,
02,
04,
F9,
0D,
06,
02,
F6,
04,
04,
FD,
01,
03,
0E,
FC,
02,
F5,
04,
02,
FA,
FD,
FE,
06,
F9,
FB,
01,
EE,
05,
FC,
F5,
07,
FC,
FB,
02,
FD,
F1,
FA,
00,
00,
F4,
F8,
FD,
05,
FC,
02,
00,
FA,
FD,
02,
FE,
00,
01,
FB,
FD,
FF,
01,
14,
F7,
0D,
FD,
01,
02,
F8,
FB,
09,
FD,
02,
FF,
05,
04,
FC,
FE,
FD,
0A,
03,
02,
00,
FC,
0D,
F6,
03,
FE,
04,
00,
F4,
FB,
FE,
06,
F9,
FC,
F9,
F8,
FD,
03,
02,
01,
00,
FF,
01,
FC,
FD,
11,
04,
02,
0C,
FA,
0B,
F8,
0D,
FA,
FF,
03,
FD,
FB,
ED,
F6,
FD,
F7,
05,
03,
06,
FB,
05,
F8,
03,
0C,
06,
01,
00,
00,
F6,
FD,
09,
02,
FF,
05,
04,
01,
03,
FC,
04,
FF,
02,
FE,
FF,
00,
FB,
F9,
04,
02,
FD,
05,
00,
02,
01,
FE,
04,
F9,
FF,
0A,
FB,
01,
07,
FE,
04,
01,
05,
02,
FC,
FD,
0B,
0B,
00,
06,
03,
F6,
05,
FE,
F8,
FE,
05,
FD,
0D,
02,
09,
0B,
F5,
FF,
05,
03,
FB,
FA,
06,
F8,
FE,
FB,
0B,
FB,
02,
F4,
09,
FC,
FB,
FB,
FF,
01,
00,
FE,
F2,
F9,
01,
05,
02,
FA,
00,
05,
FB,
0B,
05,
FC,
07,
FF,
04,
FE,
F7,
00,
00,
05,
F9,
03,
FA,
0A,
FB,
FE,
06,
FA,
08,
FA,
00,
05,
07,
0E,
01,
00,
0F,
FB,
F8,
F7,
00,
F5,
02,
FE,
05,
0D,
FB,
05,
FC,
F9,
FF,
01,
06,
05,
01,
FE,
F0,
06,
FE,
06,
06,
FD,
04,
FF,
07,
03,
05,
0B,
FA,
09,
F5,
EC,
06,
07,
FC,
06,
07,
FD,
FF,
F1,
FF,
02,
01,
07,
FF,
FC,
F7,
01,
FC,
FC,
09,
04,
02,
04,
FE,
FE,
F7,
EF,
09,
FE,
F3,
FD,
01,
01,
0B,
00,
02,
06,
F9,
F5,
FE,
FB,
08,
FB,
02,
04,
F4,
FB,
04,
FB,
02,
FD,
E9,
FB,
05,
0B,
04,
FF,
04,
02,
FC,
08,
09,
0E,
04,
F8,
00,
03,
07,
04,
F8,
00,
06,
00,
05,
F4,
F9,
03,
F0,
0C,
03,
07,
FE;
